#include "magic_wand_model_data.h"

// We need to keep the data array aligned on some architectures.
#ifdef __has_attribute
#define HAVE_ATTRIBUTE(x) __has_attribute(x)
#else
#define HAVE_ATTRIBUTE(x) 0
#endif
#if HAVE_ATTRIBUTE(aligned) || (defined(__GNUC__) && !defined(__clang__))
#define DATA_ALIGN_ATTRIBUTE __attribute__((aligned(4)))
#else
#define DATA_ALIGN_ATTRIBUTE
#endif

const unsigned char g_magic_wand_model_data[] DATA_ALIGN_ATTRIBUTE = {
  0x1c, 0x00, 0x00, 0x00, 0x54, 0x46, 0x4c, 0x33, 0x14, 0x00, 0x20, 0x00,
  0x04, 0x00, 0x08, 0x00, 0x0c, 0x00, 0x10, 0x00, 0x14, 0x00, 0x00, 0x00,
  0x18, 0x00, 0x1c, 0x00, 0x14, 0x00, 0x00, 0x00, 0x03, 0x00, 0x00, 0x00,
  0x18, 0x00, 0x00, 0x00, 0x2c, 0x00, 0x00, 0x00, 0xd8, 0x00, 0x00, 0x00,
  0x2c, 0x00, 0x00, 0x00, 0x80, 0x00, 0x00, 0x00, 0x78, 0x00, 0x00, 0x00,
  0x05, 0x00, 0x00, 0x00, 0x28, 0x07, 0x00, 0x00, 0x44, 0x06, 0x00, 0x00,
  0xbc, 0x03, 0x00, 0x00, 0xf8, 0x02, 0x00, 0x00, 0xac, 0x01, 0x00, 0x00,
  0x01, 0x00, 0x00, 0x00, 0xd0, 0x00, 0x00, 0x00, 0x14, 0x00, 0x00, 0x00,
  0x98, 0x32, 0x00, 0x00, 0x94, 0x32, 0x00, 0x00, 0x8c, 0x31, 0x00, 0x00,
  0xd8, 0x30, 0x00, 0x00, 0x30, 0x30, 0x00, 0x00, 0xbc, 0x2f, 0x00, 0x00,
  0x50, 0x2f, 0x00, 0x00, 0x00, 0x13, 0x00, 0x00, 0xec, 0x11, 0x00, 0x00,
  0x10, 0x10, 0x00, 0x00, 0xb4, 0x07, 0x00, 0x00, 0x6c, 0x32, 0x00, 0x00,
  0x68, 0x32, 0x00, 0x00, 0x64, 0x32, 0x00, 0x00, 0x60, 0x32, 0x00, 0x00,
  0x5c, 0x32, 0x00, 0x00, 0x58, 0x32, 0x00, 0x00, 0x54, 0x32, 0x00, 0x00,
  0x50, 0x32, 0x00, 0x00, 0x3c, 0x00, 0x00, 0x00, 0x00, 0x00, 0x00, 0x00,
  0x01, 0x00, 0x00, 0x00, 0x0c, 0x00, 0x00, 0x00, 0x08, 0x00, 0x0c, 0x00,
  0x04, 0x00, 0x08, 0x00, 0x08, 0x00, 0x00, 0x00, 0x08, 0x00, 0x00, 0x00,
  0x13, 0x00, 0x00, 0x00, 0x13, 0x00, 0x00, 0x00, 0x6d, 0x69, 0x6e, 0x5f,
  0x72, 0x75, 0x6e, 0x74, 0x69, 0x6d, 0x65, 0x5f, 0x76, 0x65, 0x72, 0x73,
  0x69, 0x6f, 0x6e, 0x00, 0xfa, 0xce, 0xff, 0xff, 0x04, 0x00, 0x00, 0x00,
  0x10, 0x00, 0x00, 0x00, 0x31, 0x2e, 0x35, 0x2e, 0x30, 0x00, 0x00, 0x00,
  0x00, 0x00, 0x00, 0x00, 0x00, 0x00, 0x00, 0x00, 0x0f, 0x00, 0x00, 0x00,
  0x4d, 0x4c, 0x49, 0x52, 0x20, 0x43, 0x6f, 0x6e, 0x76, 0x65, 0x72, 0x74,
  0x65, 0x64, 0x2e, 0x00, 0x00, 0x00, 0x0e, 0x00, 0x18, 0x00, 0x04, 0x00,
  0x08, 0x00, 0x0c, 0x00, 0x10, 0x00, 0x14, 0x00, 0x0e, 0x00, 0x00, 0x00,
  0x14, 0x00, 0x00, 0x00, 0x5c, 0x00, 0x00, 0x00, 0x60, 0x00, 0x00, 0x00,
  0x64, 0x00, 0x00, 0x00, 0x84, 0x00, 0x00, 0x00, 0x12, 0x00, 0x00, 0x00,
  0x58, 0x31, 0x00, 0x00, 0xe8, 0x30, 0x00, 0x00, 0x44, 0x30, 0x00, 0x00,
  0x9c, 0x2f, 0x00, 0x00, 0xf4, 0x2e, 0x00, 0x00, 0x94, 0x2e, 0x00, 0x00,
  0x2c, 0x2e, 0x00, 0x00, 0xd8, 0x11, 0x00, 0x00, 0xbc, 0x10, 0x00, 0x00,
  0xe0, 0x0e, 0x00, 0x00, 0x0c, 0x06, 0x00, 0x00, 0x28, 0x05, 0x00, 0x00,
  0xe8, 0x03, 0x00, 0x00, 0x3c, 0x03, 0x00, 0x00, 0x98, 0x02, 0x00, 0x00,
  0xd4, 0x01, 0x00, 0x00, 0x10, 0x01, 0x00, 0x00, 0x84, 0x00, 0x00, 0x00,
  0x01, 0x00, 0x00, 0x00, 0x00, 0x00, 0x00, 0x00, 0x01, 0x00, 0x00, 0x00,
  0x11, 0x00, 0x00, 0x00, 0x08, 0x00, 0x00, 0x00, 0x74, 0x05, 0x00, 0x00,
  0x94, 0x04, 0x00, 0x00, 0x78, 0x03, 0x00, 0x00, 0xbc, 0x02, 0x00, 0x00,
  0x30, 0x02, 0x00, 0x00, 0x50, 0x01, 0x00, 0x00, 0xa8, 0x00, 0x00, 0x00,
  0x10, 0x00, 0x00, 0x00, 0x04, 0x00, 0x00, 0x00, 0x6d, 0x61, 0x69, 0x6e,
  0x00, 0x00, 0x00, 0x00, 0x7a, 0xff, 0xff, 0xff, 0x00, 0x00, 0x00, 0x09,
  0x04, 0x00, 0x00, 0x00, 0x1c, 0x00, 0x00, 0x00, 0x10, 0x00, 0x00, 0x00,
  0x04, 0x00, 0x00, 0x00, 0xf6, 0xcf, 0xff, 0xff, 0x00, 0x00, 0x80, 0x3f,
  0x01, 0x00, 0x00, 0x00, 0x11, 0x00, 0x00, 0x00, 0x01, 0x00, 0x00, 0x00,
  0x10, 0x00, 0x00, 0x00, 0xa0, 0xfa, 0xff, 0xff, 0x19, 0x00, 0x00, 0x00,
  0x00, 0x00, 0x00, 0x19, 0x01, 0x00, 0x00, 0x00, 0x84, 0xcf, 0xff, 0xff,
  0x14, 0x00, 0x00, 0x00, 0x12, 0x00, 0x00, 0x00, 0x18, 0x00, 0x00, 0x00,
  0x30, 0x00, 0x00, 0x00, 0x20, 0x00, 0x00, 0x00, 0x02, 0x00, 0x00, 0x00,
  0x01, 0x00, 0x00, 0x00, 0x03, 0x00, 0x00, 0x00, 0x08, 0x00, 0x00, 0x00,
  0x49, 0x64, 0x65, 0x6e, 0x74, 0x69, 0x74, 0x79, 0x00, 0x00, 0x00, 0x00,
  0x02, 0x00, 0x00, 0x00, 0xff, 0xff, 0xff, 0xff, 0x03, 0x00, 0x00, 0x00,
  0x68, 0xd0, 0xff, 0xff, 0x00, 0x00, 0x0e, 0x00, 0x18, 0x00, 0x08, 0x00,
  0x0c, 0x00, 0x10, 0x00, 0x07, 0x00, 0x14, 0x00, 0x0e, 0x00, 0x00, 0x00,
  0x00, 0x00, 0x00, 0x08, 0x03, 0x00, 0x00, 0x00, 0x18, 0x00, 0x00, 0x00,
  0x0c, 0x00, 0x00, 0x00, 0x04, 0x00, 0x00, 0x00, 0x84, 0xcf, 0xff, 0xff,
  0x01, 0x00, 0x00, 0x00, 0x10, 0x00, 0x00, 0x00, 0x03, 0x00, 0x00, 0x00,
  0x0f, 0x00, 0x00, 0x00, 0x07, 0x00, 0x00, 0x00, 0x04, 0x00, 0x00, 0x00,
  0x0c, 0xd0, 0xff, 0xff, 0x14, 0x00, 0x00, 0x00, 0x11, 0x00, 0x00, 0x00,
  0x18, 0x00, 0x00, 0x00, 0x5c, 0x00, 0x00, 0x00, 0x4c, 0x00, 0x00, 0x00,
  0x02, 0x00, 0x00, 0x00, 0x01, 0x00, 0x00, 0x00, 0x03, 0x00, 0x00, 0x00,
  0x34, 0x00, 0x00, 0x00, 0x73, 0x65, 0x71, 0x75, 0x65, 0x6e, 0x74, 0x69,
  0x61, 0x6c, 0x2f, 0x64, 0x65, 0x6e, 0x73, 0x65, 0x5f, 0x31, 0x2f, 0x4d,
  0x61, 0x74, 0x4d, 0x75, 0x6c, 0x3b, 0x73, 0x65, 0x71, 0x75, 0x65, 0x6e,
  0x74, 0x69, 0x61, 0x6c, 0x2f, 0x64, 0x65, 0x6e, 0x73, 0x65, 0x5f, 0x31,
  0x2f, 0x42, 0x69, 0x61, 0x73, 0x41, 0x64, 0x64, 0x00, 0x00, 0x00, 0x00,
  0x02, 0x00, 0x00, 0x00, 0xff, 0xff, 0xff, 0xff, 0x03, 0x00, 0x00, 0x00,
  0x0c, 0xd0, 0xff, 0xff, 0xda, 0xfc, 0xff, 0xff, 0x00, 0x00, 0x00, 0x08,
  0x03, 0x00, 0x00, 0x00, 0x24, 0x00, 0x00, 0x00, 0x18, 0x00, 0x00, 0x00,
  0x0c, 0x00, 0x00, 0x00, 0x00, 0x00, 0x06, 0x00, 0x08, 0x00, 0x07, 0x00,
  0x06, 0x00, 0x00, 0x00, 0x00, 0x00, 0x00, 0x01, 0x01, 0x00, 0x00, 0x00,
  0x0f, 0x00, 0x00, 0x00, 0x03, 0x00, 0x00, 0x00, 0x0e, 0x00, 0x00, 0x00,
  0x06, 0x00, 0x00, 0x00, 0x03, 0x00, 0x00, 0x00, 0xe8, 0xfb, 0xff, 0xff,
  0x09, 0x00, 0x00, 0x00, 0x00, 0x00, 0x00, 0x09, 0x01, 0x00, 0x00, 0x00,
  0xcc, 0xd0, 0xff, 0xff, 0x14, 0x00, 0x00, 0x00, 0x10, 0x00, 0x00, 0x00,
  0x18, 0x00, 0x00, 0x00, 0x6c, 0x00, 0x00, 0x00, 0x5c, 0x00, 0x00, 0x00,
  0x02, 0x00, 0x00, 0x00, 0x01, 0x00, 0x00, 0x00, 0x10, 0x00, 0x00, 0x00,
  0x46, 0x00, 0x00, 0x00, 0x73, 0x65, 0x71, 0x75, 0x65, 0x6e, 0x74, 0x69,
  0x61, 0x6c, 0x2f, 0x64, 0x65, 0x6e, 0x73, 0x65, 0x2f, 0x4d, 0x61, 0x74,
  0x4d, 0x75, 0x6c, 0x3b, 0x73, 0x65, 0x71, 0x75, 0x65, 0x6e, 0x74, 0x69,
  0x61, 0x6c, 0x2f, 0x64, 0x65, 0x6e, 0x73, 0x65, 0x2f, 0x52, 0x65, 0x6c,
  0x75, 0x3b, 0x73, 0x65, 0x71, 0x75, 0x65, 0x6e, 0x74, 0x69, 0x61, 0x6c,
  0x2f, 0x64, 0x65, 0x6e, 0x73, 0x65, 0x2f, 0x42, 0x69, 0x61, 0x73, 0x41,
  0x64, 0x64, 0x00, 0x00, 0x02, 0x00, 0x00, 0x00, 0xff, 0xff, 0xff, 0xff,
  0x10, 0x00, 0x00, 0x00, 0xec, 0xd1, 0xff, 0xff, 0x00, 0x00, 0x0a, 0x00,
  0x10, 0x00, 0x04, 0x00, 0x08, 0x00, 0x0c, 0x00, 0x0a, 0x00, 0x00, 0x00,
  0x02, 0x00, 0x00, 0x00, 0x10, 0x00, 0x00, 0x00, 0x04, 0x00, 0x00, 0x00,
  0x01, 0x00, 0x00, 0x00, 0x0e, 0x00, 0x00, 0x00, 0x02, 0x00, 0x00, 0x00,
  0x0d, 0x00, 0x00, 0x00, 0x05, 0x00, 0x00, 0x00, 0xa8, 0xfc, 0xff, 0xff,
  0x16, 0x00, 0x00, 0x00, 0x00, 0x00, 0x00, 0x16, 0x01, 0x00, 0x00, 0x00,
  0x8c, 0xd1, 0xff, 0xff, 0x14, 0x00, 0x00, 0x00, 0x0f, 0x00, 0x00, 0x00,
  0x18, 0x00, 0x00, 0x00, 0x40, 0x00, 0x00, 0x00, 0x30, 0x00, 0x00, 0x00,
  0x02, 0x00, 0x00, 0x00, 0x01, 0x00, 0x00, 0x00, 0x70, 0x00, 0x00, 0x00,
  0x1a, 0x00, 0x00, 0x00, 0x73, 0x65, 0x71, 0x75, 0x65, 0x6e, 0x74, 0x69,
  0x61, 0x6c, 0x2f, 0x66, 0x6c, 0x61, 0x74, 0x74, 0x65, 0x6e, 0x2f, 0x52,
  0x65, 0x73, 0x68, 0x61, 0x70, 0x65, 0x00, 0x00, 0x02, 0x00, 0x00, 0x00,
  0xff, 0xff, 0xff, 0xff, 0x70, 0x00, 0x00, 0x00, 0x70, 0xd1, 0xff, 0xff,
  0x3e, 0xfe, 0xff, 0xff, 0x00, 0x00, 0x00, 0x05, 0x01, 0x00, 0x00, 0x00,
  0x38, 0x00, 0x00, 0x00, 0x2c, 0x00, 0x00, 0x00, 0x14, 0x00, 0x00, 0x00,
  0x00, 0x00, 0x0e, 0x00, 0x14, 0x00, 0x00, 0x00, 0x10, 0x00, 0x0c, 0x00,
  0x08, 0x00, 0x04, 0x00, 0x0e, 0x00, 0x00, 0x00, 0x03, 0x00, 0x00, 0x00,
  0x01, 0x00, 0x00, 0x00, 0x03, 0x00, 0x00, 0x00, 0x01, 0x00, 0x00, 0x00,
  0x01, 0x00, 0x00, 0x00, 0x0d, 0x00, 0x00, 0x00, 0x01, 0x00, 0x00, 0x00,
  0x0c, 0x00, 0x00, 0x00, 0x2c, 0xd2, 0xff, 0xff, 0x14, 0x00, 0x00, 0x00,
  0x0e, 0x00, 0x00, 0x00, 0x20, 0x00, 0x00, 0x00, 0x58, 0x00, 0x00, 0x00,
  0x40, 0x00, 0x00, 0x00, 0x04, 0x00, 0x00, 0x00, 0x01, 0x00, 0x00, 0x00,
  0x07, 0x00, 0x00, 0x00, 0x01, 0x00, 0x00, 0x00, 0x10, 0x00, 0x00, 0x00,
  0x22, 0x00, 0x00, 0x00, 0x73, 0x65, 0x71, 0x75, 0x65, 0x6e, 0x74, 0x69,
  0x61, 0x6c, 0x2f, 0x6d, 0x61, 0x78, 0x5f, 0x70, 0x6f, 0x6f, 0x6c, 0x69,
  0x6e, 0x67, 0x32, 0x64, 0x5f, 0x31, 0x2f, 0x4d, 0x61, 0x78, 0x50, 0x6f,
  0x6f, 0x6c, 0x00, 0x00, 0x04, 0x00, 0x00, 0x00, 0xff, 0xff, 0xff, 0xff,
  0x07, 0x00, 0x00, 0x00, 0x01, 0x00, 0x00, 0x00, 0x10, 0x00, 0x00, 0x00,
  0x28, 0xd2, 0xff, 0xff, 0x1a, 0xfe, 0xff, 0xff, 0x00, 0x00, 0x00, 0x01,
  0x24, 0x00, 0x00, 0x00, 0x18, 0x00, 0x00, 0x00, 0x04, 0x00, 0x00, 0x00,
  0x0c, 0xfe, 0xff, 0xff, 0x01, 0x00, 0x00, 0x00, 0x01, 0x00, 0x00, 0x00,
  0x00, 0x00, 0x00, 0x01, 0x01, 0x00, 0x00, 0x00, 0x0c, 0x00, 0x00, 0x00,
  0x03, 0x00, 0x00, 0x00, 0x0b, 0x00, 0x00, 0x00, 0x09, 0x00, 0x00, 0x00,
  0x02, 0x00, 0x00, 0x00, 0xd4, 0xd2, 0xff, 0xff, 0x14, 0x00, 0x00, 0x00,
  0x0d, 0x00, 0x00, 0x00, 0x20, 0x00, 0x00, 0x00, 0xb8, 0x00, 0x00, 0x00,
  0xa0, 0x00, 0x00, 0x00, 0x04, 0x00, 0x00, 0x00, 0x01, 0x00, 0x00, 0x00,
  0x15, 0x00, 0x00, 0x00, 0x01, 0x00, 0x00, 0x00, 0x10, 0x00, 0x00, 0x00,
  0x83, 0x00, 0x00, 0x00, 0x73, 0x65, 0x71, 0x75, 0x65, 0x6e, 0x74, 0x69,
  0x61, 0x6c, 0x2f, 0x63, 0x6f, 0x6e, 0x76, 0x32, 0x64, 0x5f, 0x31, 0x2f,
  0x52, 0x65, 0x6c, 0x75, 0x3b, 0x73, 0x65, 0x71, 0x75, 0x65, 0x6e, 0x74,
  0x69, 0x61, 0x6c, 0x2f, 0x63, 0x6f, 0x6e, 0x76, 0x32, 0x64, 0x5f, 0x31,
  0x2f, 0x42, 0x69, 0x61, 0x73, 0x41, 0x64, 0x64, 0x3b, 0x73, 0x65, 0x71,
  0x75, 0x65, 0x6e, 0x74, 0x69, 0x61, 0x6c, 0x2f, 0x63, 0x6f, 0x6e, 0x76,
  0x32, 0x64, 0x5f, 0x31, 0x2f, 0x43, 0x6f, 0x6e, 0x76, 0x32, 0x44, 0x3b,
  0x73, 0x65, 0x71, 0x75, 0x65, 0x6e, 0x74, 0x69, 0x61, 0x6c, 0x2f, 0x63,
  0x6f, 0x6e, 0x76, 0x32, 0x64, 0x5f, 0x31, 0x2f, 0x42, 0x69, 0x61, 0x73,
  0x41, 0x64, 0x64, 0x2f, 0x52, 0x65, 0x61, 0x64, 0x56, 0x61, 0x72, 0x69,
  0x61, 0x62, 0x6c, 0x65, 0x4f, 0x70, 0x2f, 0x72, 0x65, 0x73, 0x6f, 0x75,
  0x72, 0x63, 0x65, 0x00, 0x04, 0x00, 0x00, 0x00, 0xff, 0xff, 0xff, 0xff,
  0x15, 0x00, 0x00, 0x00, 0x01, 0x00, 0x00, 0x00, 0x10, 0x00, 0x00, 0x00,
  0x40, 0xd4, 0xff, 0xff, 0x00, 0x00, 0x0e, 0x00, 0x1a, 0x00, 0x08, 0x00,
  0x0c, 0x00, 0x10, 0x00, 0x07, 0x00, 0x14, 0x00, 0x0e, 0x00, 0x00, 0x00,
  0x00, 0x00, 0x00, 0x05, 0x01, 0x00, 0x00, 0x00, 0x3c, 0x00, 0x00, 0x00,
  0x30, 0x00, 0x00, 0x00, 0x14, 0x00, 0x00, 0x00, 0x00, 0x00, 0x0e, 0x00,
  0x18, 0x00, 0x17, 0x00, 0x10, 0x00, 0x0c, 0x00, 0x08, 0x00, 0x04, 0x00,
  0x0e, 0x00, 0x00, 0x00, 0x03, 0x00, 0x00, 0x00, 0x03, 0x00, 0x00, 0x00,
  0x03, 0x00, 0x00, 0x00, 0x03, 0x00, 0x00, 0x00, 0x00, 0x00, 0x00, 0x01,
  0x01, 0x00, 0x00, 0x00, 0x0b, 0x00, 0x00, 0x00, 0x01, 0x00, 0x00, 0x00,
  0x0a, 0x00, 0x00, 0x00, 0x2c, 0xff, 0xff, 0xff, 0x11, 0x00, 0x00, 0x00,
  0x00, 0x00, 0x00, 0x11, 0x01, 0x00, 0x00, 0x00, 0x10, 0xd4, 0xff, 0xff,
  0x14, 0x00, 0x00, 0x00, 0x0c, 0x00, 0x00, 0x00, 0x20, 0x00, 0x00, 0x00,
  0x58, 0x00, 0x00, 0x00, 0x40, 0x00, 0x00, 0x00, 0x04, 0x00, 0x00, 0x00,
  0x01, 0x00, 0x00, 0x00, 0x15, 0x00, 0x00, 0x00, 0x01, 0x00, 0x00, 0x00,
  0x08, 0x00, 0x00, 0x00, 0x20, 0x00, 0x00, 0x00, 0x73, 0x65, 0x71, 0x75,
  0x65, 0x6e, 0x74, 0x69, 0x61, 0x6c, 0x2f, 0x6d, 0x61, 0x78, 0x5f, 0x70,
  0x6f, 0x6f, 0x6c, 0x69, 0x6e, 0x67, 0x32, 0x64, 0x2f, 0x4d, 0x61, 0x78,
  0x50, 0x6f, 0x6f, 0x6c, 0x00, 0x00, 0x00, 0x00, 0x04, 0x00, 0x00, 0x00,
  0xff, 0xff, 0xff, 0xff, 0x15, 0x00, 0x00, 0x00, 0x01, 0x00, 0x00, 0x00,
  0x08, 0x00, 0x00, 0x00, 0x1c, 0xd5, 0xff, 0xff, 0x00, 0x00, 0x0e, 0x00,
  0x14, 0x00, 0x00, 0x00, 0x08, 0x00, 0x0c, 0x00, 0x07, 0x00, 0x10, 0x00,
  0x0e, 0x00, 0x00, 0x00, 0x00, 0x00, 0x00, 0x01, 0x30, 0x00, 0x00, 0x00,
  0x24, 0x00, 0x00, 0x00, 0x10, 0x00, 0x00, 0x00, 0x0c, 0x00, 0x10, 0x00,
  0x00, 0x00, 0x04, 0x00, 0x08, 0x00, 0x0f, 0x00, 0x0c, 0x00, 0x00, 0x00,
  0x01, 0x00, 0x00, 0x00, 0x01, 0x00, 0x00, 0x00, 0x00, 0x00, 0x00, 0x01,
  0x01, 0x00, 0x00, 0x00, 0x0a, 0x00, 0x00, 0x00, 0x03, 0x00, 0x00, 0x00,
  0x00, 0x00, 0x00, 0x00, 0x08, 0x00, 0x00, 0x00, 0x01, 0x00, 0x00, 0x00,
  0x0c, 0x00, 0x10, 0x00, 0x0b, 0x00, 0x00, 0x00, 0x0c, 0x00, 0x04, 0x00,
  0x0c, 0x00, 0x00, 0x00, 0x03, 0x00, 0x00, 0x00, 0x00, 0x00, 0x00, 0x03,
  0x01, 0x00, 0x00, 0x00, 0xf0, 0xd4, 0xff, 0xff, 0x14, 0x00, 0x00, 0x00,
  0x0b, 0x00, 0x00, 0x00, 0x20, 0x00, 0x00, 0x00, 0xb0, 0x00, 0x00, 0x00,
  0x98, 0x00, 0x00, 0x00, 0x04, 0x00, 0x00, 0x00, 0x01, 0x00, 0x00, 0x00,
  0x40, 0x00, 0x00, 0x00, 0x03, 0x00, 0x00, 0x00, 0x08, 0x00, 0x00, 0x00,
  0x7b, 0x00, 0x00, 0x00, 0x73, 0x65, 0x71, 0x75, 0x65, 0x6e, 0x74, 0x69,
  0x61, 0x6c, 0x2f, 0x63, 0x6f, 0x6e, 0x76, 0x32, 0x64, 0x2f, 0x52, 0x65,
  0x6c, 0x75, 0x3b, 0x73, 0x65, 0x71, 0x75, 0x65, 0x6e, 0x74, 0x69, 0x61,
  0x6c, 0x2f, 0x63, 0x6f, 0x6e, 0x76, 0x32, 0x64, 0x2f, 0x42, 0x69, 0x61,
  0x73, 0x41, 0x64, 0x64, 0x3b, 0x73, 0x65, 0x71, 0x75, 0x65, 0x6e, 0x74,
  0x69, 0x61, 0x6c, 0x2f, 0x63, 0x6f, 0x6e, 0x76, 0x32, 0x64, 0x2f, 0x43,
  0x6f, 0x6e, 0x76, 0x32, 0x44, 0x3b, 0x73, 0x65, 0x71, 0x75, 0x65, 0x6e,
  0x74, 0x69, 0x61, 0x6c, 0x2f, 0x63, 0x6f, 0x6e, 0x76, 0x32, 0x64, 0x2f,
  0x42, 0x69, 0x61, 0x73, 0x41, 0x64, 0x64, 0x2f, 0x52, 0x65, 0x61, 0x64,
  0x56, 0x61, 0x72, 0x69, 0x61, 0x62, 0x6c, 0x65, 0x4f, 0x70, 0x2f, 0x72,
  0x65, 0x73, 0x6f, 0x75, 0x72, 0x63, 0x65, 0x00, 0x04, 0x00, 0x00, 0x00,
  0xff, 0xff, 0xff, 0xff, 0x40, 0x00, 0x00, 0x00, 0x03, 0x00, 0x00, 0x00,
  0x08, 0x00, 0x00, 0x00, 0x44, 0xd5, 0xff, 0xff, 0x4e, 0xd6, 0xff, 0xff,
  0x04, 0x00, 0x00, 0x00, 0x00, 0x08, 0x00, 0x00, 0xcd, 0xcc, 0x44, 0x3e,
  0x68, 0x64, 0x91, 0x3c, 0x8c, 0xf8, 0x2e, 0x3d, 0x24, 0xa2, 0x7b, 0xbc,
  0x61, 0x97, 0x52, 0x3f, 0xf9, 0x89, 0x13, 0xbe, 0x81, 0x2a, 0x23, 0xbe,
  0xa4, 0x3d, 0x92, 0x3d, 0x9c, 0xbe, 0xc6, 0xbc, 0x03, 0xe5, 0xc5, 0x3d,
  0xc5, 0x30, 0x62, 0xbd, 0x69, 0x25, 0x1c, 0x3c, 0x1b, 0x79, 0x95, 0x3c,
  0x15, 0x67, 0x49, 0xbe, 0x63, 0x16, 0x2d, 0xbe, 0xf5, 0xf6, 0xe2, 0x3d,
  0x2f, 0x9b, 0x0c, 0xbd, 0xb3, 0xfe, 0xfa, 0xbb, 0xff, 0xa7, 0x70, 0x3c,
  0x58, 0x83, 0xfb, 0x3a, 0xfc, 0xf4, 0xb0, 0x3e, 0x0e, 0x1c, 0x79, 0xbe,
  0xd7, 0x5a, 0x3e, 0xbe, 0x2f, 0xe9, 0xf5, 0x3c, 0xdf, 0x2e, 0x1f, 0x3e,
  0xdc, 0xec, 0x23, 0x3c, 0x72, 0xa8, 0xfd, 0xbd, 0xbe, 0x60, 0xc0, 0xbd,
  0xb6, 0x05, 0xc5, 0xbc, 0xdd, 0x30, 0x5a, 0xbe, 0x48, 0x3c, 0x19, 0xbe,
  0x0d, 0xef, 0x26, 0x3e, 0x8e, 0x59, 0xb7, 0xbe, 0xc9, 0x0e, 0x0d, 0x3d,
  0x05, 0xe5, 0x35, 0xbe, 0x6a, 0x15, 0x01, 0xbd, 0x2a, 0xf6, 0x84, 0xbe,
  0x7e, 0x9d, 0xd5, 0x3e, 0xda, 0x92, 0xac, 0xbd, 0xb6, 0xbe, 0xad, 0x3e,
  0xd7, 0x0d, 0x60, 0xbd, 0x67, 0xaf, 0x99, 0xbc, 0xd4, 0xf0, 0xf8, 0xbd,
  0x14, 0xfe, 0xac, 0x3c, 0x5f, 0xf9, 0xfc, 0xbe, 0x9e, 0x7a, 0xef, 0xbd,
  0xdb, 0x61, 0xab, 0x3e, 0xb9, 0x81, 0xd1, 0x3e, 0x4a, 0xcc, 0xa7, 0x3d,
  0x9f, 0xab, 0x8f, 0xbd, 0xbb, 0xe9, 0x65, 0x3d, 0xb0, 0x8b, 0x3c, 0xbd,
  0x60, 0x10, 0xb7, 0xbe, 0x27, 0xc0, 0x46, 0xbe, 0x2b, 0x19, 0x0b, 0xbd,
  0x94, 0x5f, 0x37, 0xbe, 0xee, 0xde, 0x09, 0x3e, 0xf4, 0xe6, 0x36, 0xbe,
  0x6c, 0xa5, 0x21, 0x3e, 0x04, 0x66, 0x06, 0xbe, 0x23, 0x66, 0x36, 0x3c,
  0x4a, 0x1d, 0x48, 0xbe, 0xe4, 0xda, 0x17, 0xbe, 0x32, 0x7b, 0xec, 0xbe,
  0x36, 0x3c, 0x0d, 0x3e, 0xa3, 0xdb, 0x8c, 0x3d, 0x7b, 0xd4, 0x11, 0x3d,
  0xfd, 0x63, 0xa0, 0xbe, 0xc1, 0x13, 0x16, 0xbe, 0xb4, 0x8e, 0x5f, 0xbc,
  0xb7, 0x8e, 0x39, 0xbd, 0x3b, 0x72, 0x08, 0x3e, 0xdb, 0xf7, 0xf0, 0xbc,
  0x52, 0xde, 0x28, 0x3e, 0x8b, 0x67, 0x3d, 0xbd, 0x8a, 0x56, 0xcc, 0xbe,
  0xa0, 0x63, 0xad, 0x3c, 0x16, 0x82, 0x0b, 0x3c, 0xfc, 0x73, 0x72, 0x3c,
  0x22, 0x36, 0x01, 0x3d, 0x06, 0xc1, 0x0f, 0x3c, 0x31, 0x35, 0xc2, 0xbd,
  0x2d, 0xaf, 0xf1, 0xbd, 0xed, 0xf0, 0xbf, 0xbe, 0x5e, 0xec, 0x6b, 0x3d,
  0x43, 0x80, 0x64, 0xbd, 0x42, 0x7f, 0x05, 0xbd, 0x37, 0xb5, 0x13, 0xbe,
  0xfd, 0x21, 0x85, 0x3d, 0x81, 0xea, 0x1d, 0xbe, 0xd5, 0x8d, 0x96, 0xbd,
  0xc8, 0x66, 0xbf, 0xbe, 0x9e, 0xd4, 0x27, 0x3e, 0xf7, 0x1b, 0x82, 0xbd,
  0x76, 0x42, 0xb1, 0x3e, 0xf8, 0x27, 0x58, 0xbe, 0x47, 0xdd, 0x4e, 0xbe,
  0x36, 0x39, 0xdd, 0xbd, 0x39, 0xfe, 0x71, 0xbe, 0xb1, 0xaa, 0x7e, 0xbd,
  0x06, 0xee, 0x6c, 0xbd, 0x31, 0x89, 0x13, 0x3e, 0xcb, 0x7c, 0x98, 0xbd,
  0xd2, 0xf3, 0xc3, 0xbe, 0x14, 0xf1, 0x20, 0xbd, 0x9d, 0x20, 0x0f, 0xbe,
  0xc7, 0xc3, 0x32, 0x3e, 0xe6, 0xbd, 0xab, 0xbd, 0xc6, 0x04, 0x04, 0xbc,
  0xc2, 0x61, 0xcd, 0x3e, 0x42, 0x16, 0x16, 0xbd, 0xe6, 0xb5, 0x1b, 0x3d,
  0xb6, 0x22, 0x5c, 0xbe, 0x35, 0x0b, 0xd6, 0x3d, 0x8e, 0xe4, 0x4a, 0xbe,
  0x22, 0xf3, 0xe3, 0xbd, 0x1f, 0x0e, 0x86, 0x3c, 0x5f, 0x3c, 0xdc, 0xbd,
  0x77, 0x4b, 0x63, 0x3b, 0xfc, 0xba, 0x26, 0xbe, 0x6c, 0x97, 0x26, 0xbd,
  0x64, 0x4e, 0xf9, 0x3d, 0xe8, 0x0e, 0x3d, 0xbd, 0x4e, 0x77, 0xbd, 0xbc,
  0xb5, 0x27, 0x10, 0xbe, 0xda, 0x47, 0xb6, 0x3d, 0xbd, 0x68, 0x20, 0x3e,
  0xba, 0x5c, 0x10, 0x3f, 0xf6, 0xc2, 0xd6, 0x3e, 0x7b, 0x71, 0x5b, 0xbe,
  0x26, 0x2c, 0x21, 0xbe, 0x7c, 0x41, 0x25, 0xbe, 0x52, 0xd7, 0x24, 0x3c,
  0xcf, 0x7a, 0x6c, 0xbe, 0x4f, 0xe5, 0x89, 0xbe, 0x04, 0xf4, 0x0f, 0x3d,
  0xa0, 0xd0, 0x97, 0x3d, 0xbb, 0x49, 0x96, 0xbd, 0x84, 0x79, 0xbc, 0xbe,
  0xb5, 0xdb, 0x37, 0xbe, 0xc4, 0x3a, 0x92, 0xbe, 0x68, 0xd8, 0xba, 0xbe,
  0xfb, 0x09, 0xb0, 0x3d, 0x1a, 0xb8, 0x43, 0x3e, 0xbe, 0x89, 0x2f, 0xbe,
  0x65, 0x28, 0xb3, 0x3d, 0x90, 0x17, 0xa4, 0xbd, 0xd4, 0xf5, 0xfb, 0xbd,
  0x33, 0x7e, 0x63, 0xbe, 0x76, 0x07, 0xb6, 0xbe, 0xad, 0x3c, 0x4e, 0x3d,
  0x5e, 0x92, 0x30, 0x3d, 0x9e, 0x8a, 0xe0, 0x3c, 0x15, 0x01, 0x7b, 0xbd,
  0x35, 0x65, 0x0d, 0xbe, 0xdd, 0xd9, 0x90, 0x3b, 0x16, 0xb7, 0x45, 0xbe,
  0x68, 0xa0, 0x0a, 0xbf, 0x41, 0xb6, 0xbb, 0xbb, 0x94, 0xbe, 0x72, 0x3d,
  0x70, 0xd1, 0xb8, 0x3c, 0x77, 0xab, 0x76, 0xbd, 0x6b, 0xd4, 0x27, 0x3f,
  0x6b, 0xbb, 0x25, 0x3c, 0xfe, 0xc6, 0xc1, 0xbd, 0x45, 0x48, 0x9a, 0xbd,
  0x95, 0x47, 0xae, 0xbd, 0x40, 0x9f, 0x51, 0x3e, 0x50, 0x20, 0xc5, 0xbc,
  0x3d, 0xcf, 0x18, 0xbd, 0xec, 0x48, 0x4a, 0xbd, 0x56, 0x84, 0xd6, 0xbc,
  0x1b, 0x46, 0x29, 0xbd, 0x64, 0xa8, 0xf9, 0xbc, 0x3b, 0x27, 0xc5, 0xbd,
  0x8d, 0x20, 0x58, 0xbd, 0xfb, 0x6e, 0xe4, 0xbc, 0x08, 0x2b, 0xdf, 0xbd,
  0xde, 0xed, 0x88, 0xbd, 0x4d, 0xef, 0xd2, 0x3b, 0xf2, 0xd8, 0x66, 0xbc,
  0xdd, 0xd2, 0x1f, 0xbd, 0x87, 0x41, 0x74, 0xbd, 0x6e, 0x8c, 0xcc, 0xbe,
  0xe9, 0x04, 0xce, 0x3e, 0xf0, 0xb6, 0xdc, 0x3d, 0xbc, 0xaf, 0x12, 0x3b,
  0x3c, 0x4a, 0x87, 0x3d, 0xee, 0xfd, 0x3b, 0xbd, 0xff, 0xfe, 0x31, 0xbd,
  0xf5, 0x70, 0x4f, 0xbd, 0xb6, 0x26, 0xcc, 0xbd, 0x6c, 0xec, 0xaa, 0x3e,
  0x24, 0x86, 0x38, 0xbf, 0x31, 0x2e, 0x9b, 0x3e, 0x35, 0x38, 0x18, 0xbe,
  0xec, 0x24, 0xe6, 0x3d, 0x03, 0xbe, 0x04, 0x3f, 0x65, 0x1c, 0x51, 0xbe,
  0xbe, 0xaa, 0x5a, 0xbd, 0xd3, 0xc5, 0xd1, 0xbe, 0x56, 0xfe, 0xfb, 0xbd,
  0x96, 0x55, 0x8f, 0xbd, 0x8f, 0xc9, 0x20, 0xbe, 0xa8, 0x3b, 0x0b, 0xbd,
  0x71, 0x97, 0xe7, 0xbd, 0xae, 0x13, 0x53, 0xbe, 0x89, 0xee, 0xab, 0x3e,
  0x7e, 0x3d, 0x71, 0xbe, 0x50, 0x99, 0x12, 0x3e, 0xa8, 0x78, 0x27, 0xbe,
  0x17, 0xd3, 0x45, 0xbd, 0x73, 0x0e, 0x8d, 0xbc, 0x09, 0x3c, 0x95, 0xbd,
  0x50, 0x46, 0x53, 0xbd, 0x4b, 0x6f, 0x34, 0x3e, 0xd5, 0xf1, 0xae, 0xbd,
  0x73, 0xaa, 0x83, 0xbd, 0x61, 0x87, 0x2a, 0xbe, 0xe5, 0xbe, 0x01, 0xbe,
  0xe8, 0x85, 0xf1, 0xbd, 0xf8, 0x5b, 0xa8, 0xbd, 0x04, 0xc1, 0x71, 0x3d,
  0x4a, 0xe9, 0x26, 0xbf, 0xe9, 0x7a, 0x97, 0x3d, 0xda, 0x73, 0x10, 0xbe,
  0xe0, 0x34, 0xe0, 0xbd, 0xe7, 0xf3, 0x36, 0xbe, 0xed, 0x22, 0x49, 0x3e,
  0xc0, 0xfb, 0x3e, 0xbe, 0xe5, 0x80, 0x47, 0xbe, 0x41, 0x45, 0xa1, 0xbc,
  0x6e, 0x2d, 0xe2, 0x3e, 0x18, 0xaa, 0x84, 0xbe, 0xf1, 0x78, 0xb9, 0x3e,
  0x09, 0xb3, 0x6c, 0xbe, 0x7e, 0x4e, 0x8e, 0x3e, 0xda, 0x11, 0xf3, 0xbd,
  0x35, 0x33, 0x65, 0xbe, 0x6e, 0x5d, 0x8b, 0x3e, 0xfe, 0x5b, 0xa9, 0x3b,
  0xdd, 0x8d, 0x5d, 0xbd, 0x87, 0x00, 0x07, 0xbe, 0x04, 0xa1, 0xba, 0xbd,
  0x97, 0x10, 0x26, 0xbd, 0xe6, 0x7b, 0x18, 0xbe, 0x24, 0x3a, 0x8b, 0xbd,
  0xe3, 0xbb, 0x3c, 0x3d, 0xfb, 0x0f, 0x19, 0x3e, 0x5e, 0xf6, 0x77, 0x3e,
  0xcb, 0x69, 0x8f, 0x3c, 0x9e, 0x9c, 0x19, 0xbe, 0xeb, 0x27, 0x15, 0xbe,
  0x5a, 0xa7, 0x21, 0xbe, 0x41, 0xcb, 0xb3, 0xbd, 0x23, 0xb2, 0x4a, 0x3e,
  0x67, 0xd9, 0xc3, 0x3e, 0x0d, 0x9a, 0xcc, 0xbe, 0x07, 0xcb, 0xe2, 0x3e,
  0x3f, 0x78, 0xb9, 0xbe, 0x48, 0x7b, 0x79, 0xbd, 0xc7, 0x71, 0x83, 0x3b,
  0x5e, 0x44, 0x87, 0xbd, 0x56, 0xb4, 0x69, 0xbf, 0xf0, 0x12, 0x3f, 0x3d,
  0xcc, 0xdd, 0xef, 0xbe, 0xee, 0x68, 0xb4, 0x3e, 0x28, 0xb3, 0x76, 0xbe,
  0xff, 0x94, 0xef, 0x3d, 0xb7, 0xd2, 0x82, 0x3e, 0xe8, 0x06, 0xff, 0xbd,
  0xf1, 0x92, 0x11, 0x3e, 0xab, 0x9f, 0x02, 0xbf, 0x41, 0xea, 0x17, 0xbe,
  0x8a, 0xe5, 0x80, 0xbd, 0x4f, 0x8b, 0x1e, 0xbe, 0x16, 0xa3, 0x5c, 0x3d,
  0x42, 0x93, 0xa3, 0xbc, 0xb1, 0x8a, 0x1e, 0xbe, 0x3f, 0x95, 0x8d, 0x3e,
  0x4c, 0x49, 0x3b, 0xbd, 0x8f, 0x29, 0x18, 0x3e, 0x00, 0x55, 0xcc, 0xbd,
  0x71, 0x54, 0x2d, 0xbe, 0x4b, 0xc0, 0x4a, 0xbd, 0x12, 0x43, 0xb6, 0xbd,
  0x39, 0x23, 0x52, 0xbe, 0xfa, 0x24, 0x59, 0x3e, 0x37, 0x0b, 0x8b, 0xbe,
  0xba, 0xc8, 0x9b, 0x3e, 0x57, 0x21, 0xb5, 0xbe, 0xe2, 0x9c, 0x37, 0xbe,
  0x25, 0x8d, 0xd8, 0xba, 0x43, 0xbe, 0xa8, 0xbd, 0x3b, 0x07, 0x57, 0xbd,
  0x25, 0x5a, 0x95, 0x3c, 0x81, 0xae, 0xe8, 0xbc, 0x3c, 0x3a, 0xb7, 0xbd,
  0xda, 0x60, 0x10, 0xbd, 0xcb, 0xdd, 0x0c, 0xbe, 0xf5, 0xae, 0x67, 0xbd,
  0x90, 0xf4, 0x69, 0xbc, 0x84, 0x7f, 0xa5, 0xbd, 0xf7, 0xa7, 0xc1, 0x3d,
  0x57, 0x29, 0x82, 0x3d, 0xa3, 0x4b, 0x19, 0x3e, 0x38, 0x7b, 0xa2, 0xbd,
  0xf5, 0xa5, 0xfb, 0xbd, 0xbc, 0x39, 0xb3, 0xbd, 0x5f, 0x52, 0xdf, 0xbd,
  0x96, 0x94, 0x3b, 0xbb, 0xb9, 0x55, 0xe1, 0x3e, 0xe5, 0x16, 0xed, 0xbd,
  0xd4, 0x1b, 0xc9, 0x3d, 0x4f, 0x63, 0xfe, 0xbc, 0xa3, 0xb1, 0xa5, 0xbe,
  0x2a, 0xf4, 0xf1, 0x3d, 0x93, 0xbd, 0xbd, 0x3d, 0xf1, 0x74, 0x96, 0xbd,
  0xe3, 0x8b, 0xfd, 0xbc, 0x2a, 0x16, 0x5c, 0xbd, 0x0f, 0x09, 0xd3, 0xbe,
  0xd2, 0xd0, 0xd0, 0xbd, 0x3f, 0xe2, 0x97, 0xbe, 0x0e, 0x62, 0x6c, 0xbc,
  0x3b, 0x04, 0x61, 0x3e, 0xda, 0xee, 0x17, 0xbe, 0xa8, 0xe3, 0x7f, 0xbe,
  0xc8, 0xa3, 0x01, 0xbe, 0xca, 0x3c, 0xe5, 0xbe, 0x8e, 0x95, 0x03, 0x3d,
  0xab, 0x8a, 0xcd, 0xbd, 0x90, 0xf1, 0x92, 0x3c, 0xdf, 0x69, 0xfd, 0xbd,
  0x1f, 0xc3, 0xe7, 0xbd, 0xae, 0xa4, 0xdb, 0xbd, 0xa8, 0xea, 0x92, 0x3e,
  0x1b, 0xa2, 0xd0, 0xbd, 0xff, 0x42, 0x86, 0x3e, 0x85, 0x99, 0x55, 0xbd,
  0xa5, 0x8e, 0x09, 0x3e, 0xe0, 0x26, 0xf2, 0xbd, 0xfb, 0xea, 0x6e, 0xbe,
  0xfc, 0xa3, 0xbb, 0x3d, 0x79, 0xaf, 0x02, 0x3d, 0xa3, 0x88, 0x97, 0x3e,
  0x92, 0xdf, 0x65, 0x3d, 0xb5, 0x27, 0x7c, 0xbc, 0xca, 0xba, 0xa1, 0xbd,
  0xf8, 0x9d, 0x7c, 0xbe, 0x2e, 0x9b, 0x0c, 0xbe, 0x5b, 0xcf, 0x07, 0x3f,
  0x5f, 0x3d, 0x10, 0xbe, 0x27, 0x05, 0xd2, 0x3c, 0x63, 0x74, 0x18, 0xbd,
  0xf9, 0x41, 0x23, 0xbe, 0xd1, 0xa2, 0xab, 0x3e, 0x22, 0xce, 0xa7, 0x3e,
  0x4a, 0xb4, 0xa0, 0xbd, 0xfd, 0x8f, 0x9f, 0x3e, 0x6c, 0x66, 0x63, 0xbe,
  0x4e, 0x55, 0xa6, 0x3c, 0x74, 0xe0, 0x78, 0xbf, 0x15, 0x15, 0x9d, 0xbc,
  0x28, 0x1b, 0x85, 0xbe, 0x54, 0x87, 0x6b, 0xbe, 0x18, 0xd3, 0x2b, 0xbc,
  0x9d, 0x58, 0xc7, 0x3e, 0x6d, 0x62, 0x38, 0x3d, 0x04, 0x73, 0x2d, 0xbc,
  0xa1, 0x4b, 0x85, 0xbe, 0x5b, 0x74, 0x66, 0xbc, 0xb5, 0x3e, 0x4e, 0xbe,
  0x70, 0xf6, 0x2c, 0xbe, 0xa1, 0x45, 0xa6, 0xbc, 0x8d, 0x12, 0x32, 0xbe,
  0x31, 0xb3, 0x49, 0xbd, 0x72, 0x08, 0x05, 0x3d, 0xa2, 0xca, 0x91, 0xbe,
  0x13, 0x64, 0x31, 0xbd, 0x99, 0x27, 0x7c, 0xbd, 0x20, 0xf9, 0xa2, 0x3d,
  0xaa, 0x4d, 0x55, 0xbd, 0xe1, 0x6e, 0x18, 0xbf, 0x8b, 0xc9, 0x81, 0x3e,
  0x5f, 0xb5, 0xf2, 0x3d, 0xda, 0xdf, 0x1c, 0x3e, 0xe5, 0x9c, 0xa9, 0xbc,
  0xd1, 0x45, 0x8f, 0xbe, 0x95, 0x5e, 0xb3, 0xbc, 0xcf, 0x62, 0x2c, 0x3f,
  0x34, 0x6c, 0x1e, 0x3e, 0x27, 0xd1, 0x6b, 0x3e, 0x5b, 0x6e, 0x17, 0xbe,
  0x94, 0x38, 0x21, 0x3e, 0x54, 0x46, 0x89, 0xbd, 0x81, 0xad, 0xd6, 0xbe,
  0xab, 0x1b, 0x8c, 0xbe, 0x03, 0xc4, 0x89, 0xbe, 0xc5, 0x5b, 0x4b, 0x3e,
  0xf6, 0x6c, 0x7d, 0x3c, 0x44, 0x2c, 0x2e, 0xbe, 0x92, 0xb3, 0x07, 0x3e,
  0x72, 0x52, 0x8f, 0xbd, 0xd6, 0x80, 0xbc, 0xbd, 0x59, 0xef, 0xd2, 0xbd,
  0xf6, 0x5c, 0x67, 0xbe, 0x37, 0x37, 0xb0, 0x3d, 0xdb, 0x0c, 0x01, 0x3c,
  0x42, 0x3b, 0x69, 0xbe, 0x3b, 0xd6, 0x2e, 0x3d, 0x99, 0xef, 0x0d, 0xbe,
  0xed, 0x5d, 0x05, 0x3e, 0x79, 0xc2, 0x99, 0x3b, 0x21, 0x87, 0x7b, 0xbe,
  0xdd, 0xe0, 0xc0, 0xbd, 0xcc, 0xb2, 0xdc, 0xbe, 0x73, 0xc8, 0xf5, 0xbd,
  0x91, 0xa9, 0x47, 0xbe, 0x1f, 0x7c, 0x25, 0xbe, 0xf2, 0x26, 0x5a, 0x3d,
  0x13, 0xd2, 0xe5, 0xbd, 0x8d, 0x67, 0xac, 0xbd, 0xe2, 0xec, 0x16, 0x3c,
  0x33, 0x1c, 0xbe, 0xbe, 0x84, 0x96, 0xa3, 0xbd, 0x55, 0x1a, 0x01, 0xbe,
  0xdf, 0x6a, 0x57, 0xbe, 0x13, 0x73, 0xd4, 0xbc, 0x10, 0x3b, 0xe8, 0xbd,
  0xb9, 0x40, 0x51, 0x3d, 0x88, 0x24, 0x24, 0x3e, 0x75, 0xd9, 0x3b, 0xbe,
  0x40, 0x35, 0x8c, 0xbe, 0xde, 0xf1, 0x8b, 0xbd, 0xc1, 0xd1, 0x3d, 0xbe,
  0x4f, 0xb7, 0x6b, 0xbd, 0xf8, 0x43, 0xb4, 0xbd, 0xb7, 0xd3, 0xb7, 0x3d,
  0x63, 0xbf, 0xd2, 0xbe, 0xd5, 0x32, 0xc5, 0x3e, 0x28, 0xde, 0x9e, 0xbe,
  0xd2, 0xae, 0xc2, 0x3e, 0xf4, 0x1b, 0x1c, 0xbe, 0xd2, 0x8a, 0x74, 0x3d,
  0x24, 0x0a, 0xb4, 0x3e, 0xcf, 0xde, 0xa0, 0x3c, 0x81, 0xf2, 0x6d, 0xbd,
  0xd7, 0x43, 0x1f, 0x3f, 0x61, 0x23, 0xa1, 0xbd, 0xc7, 0xe1, 0x9e, 0x3d,
  0x4e, 0xd8, 0xe5, 0xbc, 0x18, 0x30, 0x4e, 0xbe, 0xc7, 0xd6, 0x50, 0xbe,
  0x96, 0xbc, 0x4e, 0x3d, 0xb9, 0xb7, 0x25, 0xbe, 0xd6, 0x6d, 0xfa, 0x3c,
  0x58, 0xaa, 0x58, 0xbe, 0x1e, 0x16, 0x3e, 0x3d, 0x42, 0x24, 0xf2, 0xbd,
  0xc3, 0x25, 0xbf, 0xbd, 0x3d, 0x5e, 0x15, 0xbe, 0x0a, 0x10, 0xd2, 0xbe,
  0x99, 0xca, 0x68, 0xbe, 0x74, 0xae, 0x8b, 0x3d, 0xe1, 0x89, 0x63, 0xbc,
  0x8e, 0xc3, 0xa2, 0xba, 0x31, 0xa3, 0x4c, 0xbe, 0xf9, 0xb9, 0x03, 0x3d,
  0x04, 0x41, 0x89, 0xbd, 0xa2, 0xcc, 0x96, 0xbe, 0xff, 0x6a, 0x04, 0xbe,
  0x0c, 0x3b, 0xf7, 0xbd, 0xcf, 0x18, 0xa3, 0x3d, 0xda, 0x1b, 0xfd, 0xbd,
  0xc0, 0x52, 0x34, 0xbe, 0x09, 0x5d, 0x74, 0x3e, 0xcf, 0x43, 0xdc, 0x3e,
  0x20, 0x1c, 0xc0, 0x3d, 0x5c, 0x0c, 0xbd, 0xbc, 0xdc, 0x91, 0x0c, 0xbf,
  0x1e, 0x14, 0x3c, 0x3d, 0x8c, 0x26, 0x6e, 0xbe, 0x74, 0x1c, 0x26, 0xbe,
  0xff, 0x42, 0x73, 0xbc, 0x7f, 0xe0, 0x4f, 0xbc, 0x68, 0x84, 0xa9, 0xbd,
  0x4e, 0x1e, 0x1d, 0xbe, 0xd9, 0x36, 0xf8, 0xbe, 0xcc, 0x46, 0x65, 0xbe,
  0xb4, 0xc3, 0x1f, 0xbe, 0x9e, 0x78, 0x57, 0xbe, 0x83, 0x6f, 0x58, 0x3c,
  0x33, 0x85, 0x65, 0xbc, 0x99, 0x0c, 0xde, 0xbd, 0x91, 0x8b, 0x8e, 0xbe,
  0xec, 0xda, 0x13, 0x3e, 0x4b, 0x04, 0xd1, 0xbd, 0x69, 0x18, 0xbf, 0xbd,
  0x65, 0x2e, 0x0b, 0xbe, 0x13, 0x22, 0x8c, 0x3d, 0x04, 0x70, 0xa4, 0x3c,
  0x0c, 0xbe, 0x57, 0xbd, 0x10, 0xc5, 0x94, 0xbe, 0x8d, 0x44, 0xee, 0x3d,
  0x88, 0x68, 0x90, 0xbe, 0xe9, 0x4e, 0xdc, 0x3e, 0x38, 0x65, 0x2f, 0xbe,
  0xed, 0xc1, 0xb3, 0x3d, 0xe1, 0x0c, 0x40, 0x3d, 0x92, 0xc1, 0x0c, 0xbe,
  0xf9, 0x27, 0x82, 0x3e, 0x26, 0xde, 0xff, 0xff, 0x10, 0x00, 0x00, 0x00,
  0x0a, 0x00, 0x00, 0x00, 0x1c, 0x00, 0x00, 0x00, 0x38, 0x00, 0x00, 0x00,
  0x04, 0x00, 0x00, 0x00, 0x10, 0x00, 0x00, 0x00, 0x04, 0x00, 0x00, 0x00,
  0x01, 0x00, 0x00, 0x00, 0x08, 0x00, 0x00, 0x00, 0x1a, 0x00, 0x00, 0x00,
  0x73, 0x65, 0x71, 0x75, 0x65, 0x6e, 0x74, 0x69, 0x61, 0x6c, 0x2f, 0x63,
  0x6f, 0x6e, 0x76, 0x32, 0x64, 0x5f, 0x31, 0x2f, 0x43, 0x6f, 0x6e, 0x76,
  0x32, 0x44, 0x00, 0x00, 0x9c, 0xdd, 0xff, 0xff, 0xa6, 0xde, 0xff, 0xff,
  0x04, 0x00, 0x00, 0x00, 0x80, 0x01, 0x00, 0x00, 0x00, 0xaf, 0xa3, 0xbe,
  0xe9, 0x61, 0xf0, 0xbd, 0x70, 0xe6, 0x28, 0x3e, 0x62, 0x49, 0xc2, 0x3c,
  0xaa, 0xeb, 0xf8, 0xbe, 0xe8, 0xcb, 0xb9, 0x3d, 0x30, 0x1a, 0x02, 0x3e,
  0x22, 0x3d, 0x8e, 0x3e, 0x2b, 0xea, 0xe0, 0x3c, 0x4b, 0x1c, 0x19, 0x3e,
  0xa5, 0x1a, 0xb4, 0x3e, 0x1e, 0x8a, 0x24, 0xbe, 0x23, 0xf1, 0x30, 0x3d,
  0x71, 0x38, 0x5e, 0x3d, 0x6e, 0x83, 0xde, 0x3d, 0xb2, 0x59, 0x27, 0x3d,
  0xbb, 0xd4, 0xf1, 0xbd, 0x95, 0xf0, 0xd1, 0xbd, 0x84, 0xea, 0x46, 0xbe,
  0xd0, 0x7b, 0x1d, 0x3d, 0xec, 0xbc, 0xee, 0x3d, 0x0f, 0xa0, 0xfa, 0xbd,
  0x13, 0x46, 0xf9, 0x3d, 0x32, 0x48, 0x84, 0xbe, 0xc3, 0xef, 0x10, 0xbc,
  0xb2, 0x9e, 0xa7, 0xbc, 0xe8, 0x49, 0x14, 0x3a, 0x30, 0xaf, 0x08, 0xbe,
  0x18, 0xad, 0x97, 0xbe, 0xb6, 0x66, 0xc9, 0xbe, 0xb0, 0x28, 0x9f, 0x3d,
  0x12, 0xbc, 0x5d, 0x3e, 0x8f, 0x89, 0x84, 0x3e, 0xc5, 0x87, 0x29, 0x3e,
  0x7d, 0xd2, 0x61, 0x3e, 0x07, 0xce, 0x65, 0x3e, 0x26, 0x39, 0xc1, 0xbd,
  0xe2, 0x72, 0x8f, 0x3d, 0x37, 0x72, 0x5b, 0x3e, 0xa2, 0x22, 0x9e, 0x3d,
  0x16, 0xf2, 0x8b, 0xbd, 0xb0, 0xbf, 0x29, 0x3e, 0xa4, 0x47, 0xff, 0xbd,
  0xbf, 0x75, 0x1b, 0x3d, 0xbe, 0x8b, 0x8a, 0xbd, 0xc1, 0xeb, 0x81, 0xbd,
  0x46, 0x02, 0x61, 0x3e, 0x0d, 0xa6, 0xbc, 0x3b, 0xeb, 0xbe, 0x30, 0x3e,
  0x51, 0xac, 0xa7, 0xbd, 0xf5, 0x30, 0xaa, 0xbc, 0xaa, 0x9a, 0x20, 0x3d,
  0x55, 0xe6, 0x9d, 0xbc, 0x94, 0x46, 0x11, 0x3e, 0x70, 0x80, 0xf5, 0x3e,
  0xdf, 0x6b, 0x84, 0xbd, 0x4a, 0xce, 0x62, 0x3d, 0xb3, 0x8e, 0x38, 0xbe,
  0xaf, 0xfa, 0x8e, 0x3e, 0x88, 0xfe, 0x40, 0xbe, 0x21, 0xdc, 0x22, 0x3c,
  0xe4, 0x67, 0x04, 0x3c, 0x3a, 0xe7, 0xa0, 0xbc, 0xdd, 0x7e, 0xd0, 0x3b,
  0xcd, 0x26, 0x10, 0xbd, 0x8a, 0x5d, 0x0b, 0xbe, 0x74, 0x28, 0xa0, 0x3e,
  0x95, 0xb1, 0xad, 0x3d, 0x07, 0x5d, 0x59, 0x3e, 0x3f, 0xc3, 0xa0, 0x3d,
  0x8f, 0xc1, 0x28, 0xbd, 0x08, 0x30, 0x8b, 0x3e, 0x66, 0xd4, 0x38, 0x3d,
  0xba, 0x43, 0x2d, 0x3e, 0xb7, 0x5d, 0x7c, 0xbe, 0xae, 0x6a, 0x81, 0xbd,
  0x46, 0x57, 0x42, 0x3e, 0xf8, 0x93, 0x18, 0xbe, 0x52, 0x3e, 0x70, 0x3d,
  0x5d, 0x7f, 0xd6, 0xbd, 0x02, 0xe8, 0xc8, 0xbd, 0x55, 0x82, 0x2a, 0x3e,
  0xc2, 0x4a, 0xe3, 0xbd, 0x70, 0x6e, 0xfa, 0x3d, 0x44, 0xd3, 0xcb, 0x3d,
  0xf2, 0xb0, 0x3e, 0x3d, 0x88, 0xdc, 0xe6, 0x3b, 0x75, 0x3c, 0x83, 0x3e,
  0x34, 0x5e, 0xdd, 0x3e, 0xbb, 0x01, 0x58, 0x3e, 0xf9, 0x1c, 0x07, 0xbe,
  0x71, 0xf6, 0x5b, 0xbe, 0x55, 0x23, 0x94, 0xbd, 0x9d, 0xee, 0x38, 0xbe,
  0xea, 0xa8, 0x8b, 0xbe, 0xa5, 0x39, 0x22, 0xbe, 0xfe, 0xdf, 0xff, 0xff,
  0x10, 0x00, 0x00, 0x00, 0x09, 0x00, 0x00, 0x00, 0x1c, 0x00, 0x00, 0x00,
  0x38, 0x00, 0x00, 0x00, 0x04, 0x00, 0x00, 0x00, 0x08, 0x00, 0x00, 0x00,
  0x04, 0x00, 0x00, 0x00, 0x03, 0x00, 0x00, 0x00, 0x01, 0x00, 0x00, 0x00,
  0x18, 0x00, 0x00, 0x00, 0x73, 0x65, 0x71, 0x75, 0x65, 0x6e, 0x74, 0x69,
  0x61, 0x6c, 0x2f, 0x63, 0x6f, 0x6e, 0x76, 0x32, 0x64, 0x2f, 0x43, 0x6f,
  0x6e, 0x76, 0x32, 0x44, 0x00, 0x00, 0x00, 0x00, 0x74, 0xdf, 0xff, 0xff,
  0x7e, 0xe0, 0xff, 0xff, 0x04, 0x00, 0x00, 0x00, 0xc0, 0x00, 0x00, 0x00,
  0x0e, 0x1c, 0xfa, 0xbe, 0x4b, 0x8e, 0x0f, 0x3e, 0xd5, 0x36, 0x1f, 0xbe,
  0x06, 0x1c, 0x8c, 0xbe, 0x01, 0x7b, 0x8a, 0xbc, 0x54, 0xef, 0x1f, 0xbc,
  0x2a, 0x9e, 0xa1, 0x3e, 0xa3, 0xbb, 0x11, 0xbd, 0x97, 0xd7, 0x87, 0xbc,
  0x24, 0x15, 0x93, 0xbe, 0xf8, 0xa7, 0xed, 0x3d, 0xfb, 0xcd, 0x36, 0xbd,
  0x56, 0x9d, 0x81, 0xbe, 0xc5, 0x4a, 0x28, 0xbe, 0x25, 0x9c, 0x90, 0x3e,
  0xae, 0x57, 0xb5, 0x3c, 0x5a, 0x44, 0x4e, 0x3e, 0xf4, 0x35, 0x51, 0xbe,
  0x4e, 0x87, 0xf5, 0xbd, 0x4d, 0x9f, 0x7c, 0xbe, 0x4e, 0x7d, 0x88, 0xbd,
  0x4a, 0x41, 0x72, 0xbb, 0x4c, 0xaf, 0xb5, 0x3e, 0xa9, 0x24, 0x76, 0xbb,
  0x6b, 0xd4, 0xca, 0x3d, 0x86, 0x87, 0xba, 0xbe, 0x80, 0x5b, 0x3a, 0x3d,
  0x3f, 0xcc, 0x96, 0xbd, 0x50, 0x8b, 0x9a, 0xbe, 0xeb, 0x90, 0x57, 0xbd,
  0x1e, 0x4a, 0xcd, 0xbd, 0x2b, 0xdb, 0x53, 0x3d, 0xb9, 0xa2, 0x54, 0xbd,
  0xfb, 0xdd, 0x98, 0xbe, 0xc8, 0xa7, 0x30, 0xbe, 0xa4, 0x25, 0x57, 0xbe,
  0x0d, 0xbe, 0xc6, 0x3c, 0x51, 0x87, 0x2b, 0x3d, 0x9d, 0xc7, 0x85, 0x3e,
  0x7f, 0xd8, 0x98, 0xbe, 0x07, 0x65, 0xdb, 0x3d, 0xf1, 0xfe, 0xba, 0xbe,
  0xa1, 0x9d, 0x95, 0x3d, 0x31, 0x02, 0xb1, 0xbd, 0xe7, 0x07, 0x56, 0xbe,
  0x27, 0xc3, 0x1d, 0xbe, 0x49, 0x30, 0x5a, 0xbe, 0x26, 0x74, 0xef, 0x3d,
  0x16, 0xe1, 0xff, 0xff, 0x10, 0x00, 0x00, 0x00, 0x08, 0x00, 0x00, 0x00,
  0x14, 0x00, 0x00, 0x00, 0x30, 0x00, 0x00, 0x00, 0x02, 0x00, 0x00, 0x00,
  0x03, 0x00, 0x00, 0x00, 0x10, 0x00, 0x00, 0x00, 0x19, 0x00, 0x00, 0x00,
  0x73, 0x65, 0x71, 0x75, 0x65, 0x6e, 0x74, 0x69, 0x61, 0x6c, 0x2f, 0x64,
  0x65, 0x6e, 0x73, 0x65, 0x5f, 0x31, 0x2f, 0x4d, 0x61, 0x74, 0x4d, 0x75,
  0x6c, 0x00, 0x00, 0x00, 0x84, 0xe0, 0xff, 0xff, 0x8e, 0xe1, 0xff, 0xff,
  0x04, 0x00, 0x00, 0x00, 0x00, 0x1c, 0x00, 0x00, 0x78, 0x35, 0x5e, 0xbe,
  0x32, 0xd2, 0x24, 0xbe, 0xa0, 0x4a, 0x49, 0xbe, 0x3b, 0x0c, 0xc0, 0xbe,
  0x19, 0x79, 0x24, 0xbe, 0xfd, 0xb8, 0xa6, 0xbe, 0x99, 0x94, 0x04, 0x3c,
  0xd5, 0xdf, 0xfc, 0x3d, 0x31, 0x06, 0x60, 0xbe, 0xd0, 0x40, 0x57, 0xbe,
  0xb4, 0x9f, 0x5d, 0xbe, 0x76, 0x9f, 0x69, 0xbe, 0xc4, 0xdc, 0x2e, 0xbe,
  0xbd, 0x86, 0xb4, 0xbd, 0x67, 0x63, 0xd8, 0xbc, 0x35, 0x08, 0xc6, 0x3d,
  0x5c, 0x51, 0xc2, 0x3b, 0x1a, 0x52, 0xa4, 0xbd, 0xf1, 0x82, 0x54, 0x3e,
  0x93, 0x89, 0x45, 0xbd, 0x2a, 0xe4, 0x99, 0x3d, 0xb0, 0x11, 0xde, 0x3c,
  0xec, 0x2b, 0x89, 0xbd, 0x45, 0x4c, 0x41, 0xbd, 0x2d, 0xd6, 0x41, 0xbd,
  0x4d, 0xd6, 0x1e, 0x3d, 0x63, 0x53, 0x55, 0x3e, 0xb1, 0xdd, 0x2a, 0xbd,
  0xd2, 0x1f, 0x6e, 0xbe, 0x54, 0x89, 0x24, 0xbc, 0x39, 0xff, 0x10, 0xbd,
  0xf6, 0xa2, 0xf7, 0xbd, 0x7b, 0x8c, 0x7e, 0xbe, 0x78, 0xe4, 0xe4, 0xbd,
  0x62, 0xff, 0xed, 0xbd, 0xa1, 0x63, 0x38, 0xbe, 0xf4, 0xbc, 0xc6, 0x3d,
  0x76, 0xfd, 0xc8, 0x3d, 0xde, 0xf9, 0x1d, 0x3e, 0x43, 0xd1, 0x20, 0xbe,
  0x7a, 0xac, 0x0b, 0xbe, 0x67, 0xcf, 0x6b, 0xbe, 0x30, 0xba, 0x9c, 0x3c,
  0x87, 0x30, 0x20, 0xbe, 0x60, 0x31, 0x0b, 0xbd, 0xc7, 0x4e, 0xfa, 0x3d,
  0x5c, 0xdf, 0x36, 0xbe, 0x30, 0x60, 0x17, 0xbe, 0xa5, 0x34, 0x58, 0xbd,
  0x77, 0xef, 0xb8, 0x3d, 0xa2, 0xff, 0xa5, 0xbd, 0x6e, 0xa3, 0x30, 0xbe,
  0xc8, 0xa4, 0xed, 0x3d, 0x86, 0x9f, 0x7a, 0xbe, 0x1f, 0x02, 0xe1, 0xbd,
  0xa3, 0x6e, 0xca, 0x3d, 0x6b, 0x92, 0xeb, 0xbd, 0x76, 0xa0, 0x2c, 0xbe,
  0xdf, 0xf5, 0x43, 0xbe, 0x78, 0x44, 0x81, 0xbe, 0xfd, 0x32, 0x50, 0xbd,
  0x34, 0x3a, 0x88, 0x3d, 0xd5, 0xc1, 0x8b, 0x3d, 0xdb, 0x75, 0x01, 0x3c,
  0xc9, 0xfd, 0x1f, 0xbe, 0xe7, 0x86, 0x42, 0x3d, 0x13, 0xa4, 0x57, 0xbe,
  0xe9, 0xe3, 0x2c, 0xbc, 0x17, 0x89, 0x51, 0xbe, 0x9b, 0xe7, 0x5b, 0xbe,
  0xca, 0xe0, 0x0c, 0xbe, 0x29, 0x89, 0x74, 0xbc, 0xa7, 0x66, 0x27, 0x3e,
  0xd4, 0xbd, 0x7b, 0xbe, 0x24, 0x1e, 0x57, 0xbd, 0x09, 0xec, 0x84, 0x3d,
  0xf9, 0x43, 0x0b, 0xbb, 0x8e, 0x5d, 0x55, 0xbd, 0xc1, 0x24, 0x3f, 0xbe,
  0xcb, 0x16, 0x25, 0xbe, 0x11, 0x74, 0x0c, 0xbe, 0x40, 0xd3, 0xa3, 0x3d,
  0xc5, 0xea, 0xe6, 0x3d, 0xa9, 0x90, 0xa9, 0xbe, 0x14, 0x8b, 0x5c, 0xbe,
  0xe0, 0x94, 0x8c, 0xbe, 0xa3, 0x5b, 0x38, 0x3e, 0x42, 0xda, 0x0e, 0xbe,
  0x6f, 0x11, 0x2c, 0xbe, 0xef, 0x0c, 0x34, 0x3d, 0x2c, 0x12, 0x61, 0x3d,
  0xe9, 0xee, 0xe5, 0xbd, 0xb1, 0xf9, 0x1b, 0xbd, 0x7f, 0xc2, 0x82, 0xbe,
  0xa3, 0x68, 0xb5, 0xbd, 0x80, 0xfc, 0x1d, 0xbe, 0x12, 0xcd, 0xb2, 0xbd,
  0x13, 0x18, 0xbb, 0xbc, 0x04, 0xad, 0xb2, 0x3d, 0xf4, 0x64, 0x07, 0xbe,
  0x0f, 0x74, 0xf6, 0xbd, 0x06, 0x47, 0xf5, 0xbd, 0x12, 0x0e, 0x5c, 0xbe,
  0x90, 0x44, 0x1a, 0xbe, 0xc8, 0xdf, 0x13, 0xbd, 0x26, 0xc5, 0xe6, 0x3d,
  0x75, 0xc7, 0x38, 0xbe, 0xe0, 0xea, 0x3d, 0xbe, 0x0a, 0xfe, 0x68, 0xbe,
  0x6b, 0x45, 0x2d, 0xbe, 0x49, 0xad, 0x3d, 0xbe, 0x6c, 0x85, 0x97, 0xbd,
  0x71, 0xdb, 0xe5, 0xbe, 0xe6, 0xff, 0x9f, 0x3c, 0x42, 0xab, 0x3c, 0xbe,
  0xc3, 0x31, 0xc4, 0xbe, 0xae, 0x60, 0xe6, 0x3d, 0x4c, 0x4b, 0x06, 0xbe,
  0x84, 0xf6, 0x21, 0xbe, 0xd4, 0x53, 0x2b, 0xbe, 0x12, 0x10, 0x98, 0x3c,
  0xf2, 0xf1, 0xf5, 0x3c, 0xc1, 0xcd, 0xa6, 0xbe, 0x77, 0xf3, 0x35, 0x3d,
  0xcf, 0xe8, 0x0c, 0xbf, 0xca, 0xe9, 0x2e, 0x3e, 0x56, 0xe3, 0x66, 0x3e,
  0x0d, 0x88, 0x1c, 0x3f, 0xb6, 0x42, 0x61, 0xbe, 0x23, 0xde, 0xb3, 0x3d,
  0x99, 0xe9, 0x82, 0x3d, 0x85, 0x94, 0x3a, 0xbe, 0x78, 0x2c, 0x81, 0x3f,
  0x40, 0x6e, 0x9e, 0xbe, 0x7e, 0xad, 0x96, 0xba, 0xbe, 0x49, 0x6b, 0xbe,
  0xbe, 0xa3, 0xb4, 0x3d, 0xce, 0xe9, 0xeb, 0xbd, 0x92, 0x44, 0x57, 0xbb,
  0xa3, 0xe8, 0x01, 0x3c, 0x2e, 0x76, 0x06, 0xbf, 0x0a, 0x1d, 0x0c, 0x3f,
  0xfe, 0x65, 0xb6, 0x3e, 0xc7, 0x2b, 0x84, 0x3f, 0x7e, 0x3b, 0x9f, 0xbe,
  0xba, 0x16, 0x38, 0x3a, 0xab, 0xf5, 0x2d, 0xbe, 0x6b, 0x0a, 0xcb, 0xbe,
  0x08, 0x4a, 0x43, 0x3f, 0xfe, 0xe4, 0x2f, 0xbe, 0x45, 0x0c, 0x78, 0xbd,
  0xe1, 0x15, 0x3c, 0xbe, 0xd8, 0xce, 0x47, 0xbe, 0xfc, 0x22, 0xb5, 0xbd,
  0x75, 0x43, 0x92, 0xba, 0x92, 0x5c, 0x59, 0xbe, 0xe4, 0x92, 0x92, 0xbe,
  0x7c, 0x88, 0x60, 0xbe, 0x7d, 0xe0, 0xd3, 0x3d, 0x56, 0x42, 0x6e, 0x3f,
  0xc3, 0x95, 0xe8, 0xbd, 0x0d, 0xf8, 0x2c, 0x3e, 0x76, 0x0b, 0x5d, 0xbe,
  0xbf, 0x4e, 0x28, 0xbe, 0xe2, 0x53, 0x7d, 0x3f, 0x3f, 0x28, 0xf8, 0xbd,
  0x99, 0x7b, 0xde, 0x39, 0x7b, 0x57, 0x93, 0xbe, 0x8e, 0xe4, 0xa1, 0x3d,
  0x54, 0xad, 0x6e, 0xbd, 0x4f, 0x72, 0x24, 0xbe, 0x47, 0x16, 0x2b, 0xbe,
  0xc5, 0x0c, 0xc2, 0xbe, 0xbc, 0xc0, 0x47, 0xbd, 0xb5, 0x22, 0xe6, 0x3d,
  0x8c, 0x62, 0x3d, 0x3f, 0xdf, 0x63, 0x12, 0xbe, 0x2d, 0x6f, 0x00, 0x3d,
  0x99, 0xa4, 0xfa, 0x3d, 0xb2, 0xe1, 0xb0, 0xbe, 0x22, 0x78, 0xbc, 0x3e,
  0x71, 0x25, 0x8f, 0xbe, 0x54, 0x78, 0x23, 0xbd, 0x34, 0xdd, 0x95, 0xbe,
  0x35, 0x2a, 0x81, 0xbd, 0x0e, 0xf1, 0x3a, 0x3f, 0x4f, 0xd0, 0xa0, 0x3c,
  0xe3, 0x0f, 0xe7, 0xbb, 0xc6, 0x61, 0xf6, 0xbd, 0xd3, 0xe8, 0x80, 0x3d,
  0x7a, 0x4c, 0x5e, 0xbe, 0x6c, 0xbf, 0xba, 0x3e, 0xcb, 0xba, 0xc7, 0xbd,
  0x75, 0x9d, 0x75, 0xbe, 0x48, 0x4c, 0xcb, 0x3d, 0x1e, 0xa5, 0xa0, 0xbd,
  0x7c, 0x71, 0xb6, 0x3e, 0x2f, 0xba, 0xd3, 0xbe, 0x05, 0x14, 0xe5, 0xbd,
  0x16, 0xad, 0x9d, 0xbe, 0xc1, 0x3e, 0x21, 0xbe, 0xb0, 0x33, 0x01, 0xbe,
  0x8c, 0xeb, 0xc2, 0x3d, 0x05, 0x29, 0x8f, 0xbe, 0x9d, 0x34, 0x30, 0xbe,
  0x3c, 0x0d, 0x4f, 0x3c, 0xdf, 0xf8, 0x3a, 0x3e, 0xe4, 0xe4, 0x44, 0x3f,
  0x95, 0xf5, 0xb9, 0xbe, 0xd2, 0x95, 0x84, 0xbe, 0x9f, 0x48, 0x71, 0xbe,
  0x7b, 0xba, 0x52, 0xbe, 0x07, 0x73, 0x3a, 0x3e, 0xdc, 0x5e, 0xb1, 0xbe,
  0x68, 0xdd, 0x14, 0xbe, 0xa1, 0x7b, 0xa6, 0xbe, 0xb7, 0xa5, 0x29, 0xbe,
  0x0d, 0xf7, 0xad, 0x3d, 0x15, 0x52, 0x0f, 0xbe, 0xc4, 0xeb, 0x1f, 0x3d,
  0xab, 0x16, 0x08, 0xbf, 0xd4, 0x0e, 0x1e, 0xbe, 0xe4, 0xb1, 0xc6, 0x3c,
  0x2d, 0x96, 0xab, 0x3e, 0x50, 0x13, 0x29, 0xbc, 0xd8, 0x2d, 0x36, 0xbc,
  0xdb, 0xe7, 0x56, 0xbe, 0xc0, 0xab, 0xca, 0xbb, 0x54, 0x7c, 0x4f, 0xbe,
  0xe5, 0x5a, 0x9c, 0x3e, 0x29, 0xdf, 0x84, 0x3e, 0xea, 0xfb, 0x2b, 0x3e,
  0xeb, 0x19, 0x7c, 0x3e, 0x32, 0x07, 0x98, 0xbc, 0x0b, 0x26, 0xb3, 0xbd,
  0x5f, 0xe5, 0x48, 0x3e, 0x89, 0x31, 0x5d, 0x3d, 0xed, 0x78, 0xa6, 0xbe,
  0x6b, 0x6e, 0x1b, 0x3d, 0xcc, 0x51, 0xca, 0x3d, 0xa3, 0x69, 0x63, 0xbd,
  0x17, 0x9d, 0x39, 0x3d, 0xce, 0xdd, 0xd2, 0xbd, 0xbc, 0x4f, 0x39, 0xbc,
  0x83, 0x5b, 0x1b, 0x3e, 0xb0, 0x96, 0xdc, 0xbd, 0x31, 0x74, 0xea, 0x3d,
  0x27, 0x50, 0x5a, 0xbe, 0xba, 0x30, 0x7d, 0xbd, 0x06, 0x72, 0xb5, 0x3d,
  0x76, 0xdc, 0x44, 0xbe, 0x43, 0x1d, 0x1e, 0x3e, 0x13, 0x0b, 0x8b, 0xbd,
  0xbc, 0xef, 0x2a, 0xbe, 0x6d, 0xbb, 0x6f, 0xbc, 0xf4, 0x16, 0xdf, 0xbe,
  0x9f, 0xb8, 0x5f, 0xbd, 0x58, 0x88, 0x14, 0xbe, 0x85, 0xaf, 0x6f, 0xbe,
  0x54, 0xd7, 0xf4, 0x3b, 0xa9, 0x43, 0xbd, 0x3d, 0xdb, 0xe0, 0x1b, 0xbe,
  0x4b, 0xc2, 0x5a, 0xbe, 0x94, 0xda, 0x26, 0xbf, 0x6d, 0x44, 0xe8, 0xbd,
  0x59, 0xa8, 0x5b, 0xbe, 0x30, 0x88, 0xb3, 0x3c, 0xc7, 0xca, 0xc9, 0xbe,
  0xbd, 0x79, 0x33, 0xbe, 0x96, 0x0e, 0xf4, 0xbd, 0x6d, 0x67, 0xc1, 0xbd,
  0x27, 0xe1, 0x32, 0xbe, 0xfe, 0xab, 0x59, 0xbd, 0x24, 0xb3, 0x46, 0xbf,
  0x61, 0xc6, 0xae, 0xbd, 0x63, 0xc0, 0xb5, 0xbc, 0x7a, 0xe1, 0x04, 0xbf,
  0xe4, 0x83, 0x63, 0xbe, 0x26, 0x6e, 0x85, 0xbe, 0x76, 0xd7, 0x26, 0xbf,
  0xa0, 0x4b, 0xab, 0xbd, 0xba, 0x67, 0xba, 0xbe, 0xf5, 0x31, 0x16, 0xbe,
  0xe0, 0x61, 0x30, 0xbf, 0xc9, 0xca, 0x0c, 0xbf, 0x85, 0xab, 0xae, 0x3e,
  0x06, 0xa3, 0x5f, 0xbe, 0x3b, 0x39, 0x8e, 0x3e, 0x83, 0x6c, 0x2f, 0xbd,
  0x34, 0x15, 0x88, 0xbe, 0xff, 0x2e, 0x1b, 0xbe, 0xab, 0xeb, 0xad, 0x3b,
  0xc4, 0xe2, 0x92, 0xbe, 0x55, 0x6b, 0x11, 0xbe, 0xc3, 0x03, 0xa5, 0x3e,
  0x3a, 0xac, 0x31, 0xbd, 0x87, 0x94, 0xa6, 0xbc, 0x44, 0x49, 0xa4, 0xbd,
  0xed, 0x00, 0x8a, 0x3d, 0x07, 0xdd, 0x4a, 0xbe, 0x38, 0xb7, 0x01, 0xbf,
  0xc0, 0xbc, 0xac, 0x3e, 0xf5, 0x4d, 0x94, 0xbc, 0xc3, 0x6b, 0xbf, 0x3e,
  0x92, 0xbf, 0x1b, 0xbd, 0x82, 0x4b, 0x39, 0x3e, 0xef, 0x64, 0xd1, 0xbe,
  0xa8, 0x19, 0x3c, 0x3d, 0xc1, 0x83, 0x52, 0xbe, 0x51, 0x01, 0xd7, 0x3d,
  0x54, 0x6a, 0x33, 0x3e, 0x58, 0xc6, 0x41, 0x3d, 0xfb, 0x04, 0x4c, 0x3c,
  0xd5, 0x24, 0x6a, 0xbc, 0x9b, 0x84, 0x5b, 0x3e, 0x7f, 0xa1, 0x64, 0x3e,
  0x01, 0xe8, 0x59, 0xbe, 0xf6, 0xbb, 0x01, 0x3f, 0xb4, 0xfb, 0x22, 0x3d,
  0xf0, 0x9d, 0x10, 0x3f, 0x66, 0xbd, 0xa3, 0xbc, 0x80, 0x20, 0x24, 0x3d,
  0xce, 0x6e, 0x58, 0xbe, 0xe7, 0xcd, 0xa8, 0xbc, 0xd8, 0xa0, 0x2e, 0x3e,
  0xf0, 0xf6, 0x68, 0x3d, 0xdb, 0xdd, 0x81, 0xbc, 0xb6, 0x11, 0xf0, 0x3c,
  0x3c, 0x81, 0xf6, 0x3c, 0xc5, 0x97, 0x98, 0x3e, 0x08, 0x17, 0x00, 0x3e,
  0x9b, 0xb6, 0x09, 0x3e, 0x28, 0xf7, 0xed, 0xbc, 0x56, 0xef, 0x9f, 0x3e,
  0xac, 0xc0, 0xf9, 0x3d, 0x48, 0xd2, 0xf2, 0x3e, 0xdb, 0x39, 0x6c, 0xbd,
  0xa1, 0xd7, 0x05, 0xbf, 0xe5, 0x7b, 0xfa, 0x3e, 0x83, 0xbe, 0x05, 0xbe,
  0xa6, 0x81, 0xf6, 0xbe, 0x6d, 0xf4, 0x38, 0xbe, 0x89, 0xa5, 0xa1, 0xbe,
  0x95, 0x19, 0x74, 0xbd, 0xce, 0x8b, 0xcd, 0xbe, 0x3b, 0x56, 0xbe, 0x3e,
  0x34, 0x5c, 0xf1, 0x3d, 0xbd, 0x9f, 0xd7, 0xbe, 0x27, 0xab, 0x16, 0xbe,
  0x64, 0xff, 0x2f, 0xbc, 0xbd, 0x85, 0x62, 0xbe, 0x5d, 0xa9, 0x0b, 0x3e,
  0xee, 0x24, 0x6d, 0x3d, 0x65, 0x26, 0x13, 0xbd, 0xf7, 0xd1, 0x9d, 0x3e,
  0xb4, 0x64, 0x5e, 0xbe, 0x16, 0x12, 0x46, 0xbe, 0x30, 0x57, 0x72, 0x3c,
  0x85, 0x44, 0xd4, 0x3c, 0xdb, 0x20, 0x89, 0x3e, 0xfb, 0x99, 0xa2, 0xbc,
  0x23, 0x4f, 0x93, 0x3e, 0xc2, 0xc5, 0x98, 0x3e, 0xb6, 0x83, 0x20, 0xbe,
  0x4a, 0x38, 0x49, 0x3c, 0x0d, 0xd3, 0x3d, 0x3e, 0x8d, 0x74, 0x72, 0xbd,
  0xa1, 0x29, 0x53, 0x3d, 0xf5, 0xe3, 0x2b, 0x3e, 0xd7, 0x36, 0x08, 0xbe,
  0x13, 0xe2, 0x78, 0x3d, 0x5b, 0x53, 0x71, 0xbe, 0x13, 0x3d, 0x7b, 0x3d,
  0x52, 0x21, 0x88, 0x3e, 0x63, 0xcf, 0x98, 0x3e, 0x17, 0x03, 0xd5, 0x3e,
  0x60, 0xde, 0x79, 0xbc, 0x85, 0x52, 0x14, 0x3c, 0x15, 0x91, 0xc3, 0x3d,
  0xef, 0xf2, 0x18, 0xbd, 0x29, 0x1d, 0x03, 0x3e, 0xf0, 0x46, 0x1a, 0x3f,
  0x95, 0x06, 0x3e, 0x3e, 0x8a, 0xb9, 0xee, 0xbd, 0x2e, 0x8c, 0x44, 0x3e,
  0x95, 0xfc, 0xd7, 0x3c, 0xfd, 0xbd, 0x8b, 0x3e, 0x4f, 0xa9, 0x2d, 0xbe,
  0x21, 0xb0, 0x27, 0x3e, 0xc5, 0xba, 0x44, 0x3e, 0xd5, 0x90, 0x05, 0x3e,
  0xba, 0xec, 0xe1, 0x3e, 0x9e, 0x06, 0x16, 0x3e, 0x34, 0x26, 0x09, 0xbd,
  0xf0, 0xbf, 0xed, 0x3d, 0x7d, 0x9b, 0x1a, 0x3b, 0x01, 0x3e, 0x93, 0x3d,
  0x89, 0x16, 0xff, 0x3a, 0x70, 0x43, 0x21, 0x3e, 0x59, 0x4b, 0x9e, 0xbd,
  0x3b, 0x04, 0x0e, 0x3e, 0x7f, 0xda, 0x96, 0xbd, 0x87, 0x32, 0x20, 0x3f,
  0x65, 0xff, 0x8c, 0xbe, 0xec, 0x9c, 0xb3, 0x3d, 0x6c, 0xbb, 0x49, 0x3d,
  0x77, 0xd9, 0x0a, 0x3e, 0x95, 0x33, 0x52, 0x3e, 0xe0, 0x0b, 0x81, 0xbd,
  0xb5, 0x57, 0xff, 0x3c, 0x15, 0x35, 0xee, 0xbd, 0xe4, 0x28, 0x23, 0xbe,
  0x26, 0xcd, 0x1d, 0x3c, 0x1a, 0x08, 0x5b, 0xbd, 0xd4, 0x5d, 0xd1, 0xbd,
  0x67, 0x6a, 0x7a, 0xbe, 0x61, 0x99, 0x7e, 0x3d, 0x14, 0x56, 0x8e, 0xbd,
  0x35, 0x5c, 0x14, 0x3f, 0x45, 0xd9, 0xbf, 0xbe, 0xba, 0x9a, 0x86, 0x3e,
  0x58, 0x55, 0xbc, 0x3c, 0x3b, 0xb0, 0x84, 0xbd, 0xd6, 0x86, 0xc2, 0x3d,
  0xf2, 0xe5, 0x17, 0x3d, 0x78, 0x2d, 0xe0, 0xbd, 0xf0, 0x95, 0x02, 0xbd,
  0x93, 0x61, 0x58, 0xbe, 0x4d, 0x42, 0xab, 0x3c, 0x49, 0x01, 0x12, 0xbe,
  0x88, 0xc5, 0xe6, 0xbb, 0x4d, 0x38, 0x5d, 0xbe, 0xaa, 0xf3, 0x21, 0x3d,
  0xcc, 0xb1, 0x8f, 0xbe, 0x4b, 0x19, 0xc1, 0x3d, 0x95, 0xe1, 0x9b, 0xbe,
  0x82, 0xdd, 0x1c, 0x3f, 0x62, 0x22, 0x2d, 0xbe, 0x80, 0xb7, 0x97, 0xbd,
  0xcc, 0x09, 0xdf, 0x3d, 0xef, 0x37, 0x1d, 0xbe, 0xec, 0x8b, 0xa0, 0xbd,
  0x17, 0x41, 0x4c, 0x3c, 0xd1, 0xd5, 0x70, 0xbd, 0x13, 0x91, 0xa5, 0xbc,
  0xf6, 0x27, 0x88, 0x3d, 0x41, 0xc5, 0xb0, 0xbc, 0x57, 0x7a, 0xc0, 0xbd,
  0x20, 0x41, 0x7c, 0xbe, 0x26, 0x29, 0x9b, 0xbe, 0xdb, 0xbe, 0x80, 0x3e,
  0xcb, 0x95, 0x34, 0x3e, 0xb0, 0xd6, 0x7b, 0x3e, 0x92, 0x78, 0xb5, 0xbd,
  0x80, 0xe9, 0xd4, 0xbe, 0xdf, 0x77, 0x45, 0xbe, 0xc7, 0x5e, 0x6a, 0xbe,
  0xd3, 0xc7, 0x5c, 0x3e, 0xa1, 0xea, 0xb1, 0xbd, 0x71, 0x89, 0x30, 0xbe,
  0xde, 0x93, 0xa3, 0xbe, 0x88, 0x99, 0x84, 0x3d, 0x33, 0xee, 0x8e, 0xbd,
  0xea, 0xde, 0xf0, 0xbd, 0x49, 0x7e, 0xb0, 0xbd, 0xc8, 0x54, 0x07, 0xbe,
  0xca, 0x1f, 0x34, 0x3e, 0x03, 0x60, 0x76, 0x3e, 0xa7, 0x4a, 0x4f, 0x3e,
  0x1b, 0x43, 0x17, 0xbe, 0x01, 0xc2, 0x4a, 0xbd, 0xb0, 0x87, 0x37, 0xbe,
  0x06, 0x40, 0xb4, 0xbc, 0x3a, 0x6d, 0x0e, 0x3e, 0xd7, 0x46, 0x29, 0x3d,
  0xac, 0xab, 0x0d, 0xbb, 0x67, 0x2a, 0x24, 0xbe, 0x27, 0x5a, 0x03, 0x3f,
  0x75, 0xc5, 0x98, 0xbe, 0xf3, 0x57, 0xb0, 0xbc, 0x91, 0x07, 0xdf, 0xbd,
  0x05, 0xb8, 0x64, 0xbe, 0x07, 0x71, 0xd3, 0x3e, 0x4c, 0xf6, 0xf8, 0x3d,
  0x95, 0xf5, 0x46, 0x3e, 0xb2, 0x24, 0x3e, 0x3d, 0xc0, 0x20, 0x2e, 0x3d,
  0xaf, 0x24, 0x39, 0xbe, 0x95, 0xae, 0x20, 0xbc, 0xe8, 0xf0, 0x81, 0x3e,
  0x2d, 0x79, 0x08, 0x3d, 0xf2, 0x25, 0xc8, 0xbd, 0xad, 0xb9, 0x88, 0xbd,
  0x50, 0xdd, 0x94, 0x3e, 0xe3, 0x52, 0x2c, 0xbd, 0x48, 0xf1, 0x83, 0xbe,
  0x67, 0x0f, 0x5d, 0xbe, 0x51, 0xb9, 0x88, 0x3c, 0xee, 0x63, 0xaf, 0x3e,
  0x84, 0x18, 0x61, 0xbd, 0xb3, 0xf1, 0xaf, 0xbd, 0xa6, 0x4c, 0x27, 0xbe,
  0x9f, 0x16, 0xfd, 0x3e, 0x81, 0x58, 0x8b, 0xbd, 0x46, 0xfd, 0x4d, 0x3e,
  0x1a, 0xa2, 0x5d, 0x3e, 0x0c, 0xb2, 0x87, 0x3e, 0xe9, 0x87, 0x85, 0xbd,
  0x6d, 0x49, 0x79, 0xbe, 0x7c, 0x37, 0xa6, 0x3d, 0x1b, 0x0e, 0xbd, 0xb6,
  0x57, 0x6e, 0x91, 0xbd, 0x6f, 0xa6, 0x97, 0xbc, 0xda, 0xbe, 0x28, 0xbd,
  0xa4, 0x0f, 0x8e, 0x3e, 0x5e, 0x50, 0x17, 0xbe, 0x8d, 0x6a, 0x6a, 0x3e,
  0xb3, 0x24, 0xb1, 0xbe, 0xd9, 0xa3, 0x2e, 0x3d, 0x57, 0x50, 0x88, 0xbe,
  0x35, 0x31, 0x3a, 0x3e, 0x14, 0x09, 0x14, 0x3e, 0xef, 0x31, 0x3f, 0xbe,
  0xf8, 0x8c, 0x2a, 0x3e, 0x7f, 0xc8, 0xe2, 0xbd, 0x89, 0x73, 0x01, 0x3e,
  0x3e, 0xe0, 0xc0, 0x3b, 0x55, 0x74, 0xa6, 0xbd, 0x44, 0x05, 0x8e, 0xbe,
  0x14, 0xda, 0xae, 0xbd, 0xc5, 0x5a, 0x82, 0x3e, 0xfe, 0x84, 0x1a, 0xbd,
  0x5c, 0x46, 0xf0, 0x3d, 0xd4, 0x40, 0x66, 0xbe, 0xdb, 0xea, 0x5c, 0xbd,
  0xfe, 0x08, 0x49, 0xbe, 0x2c, 0xa0, 0x01, 0x3c, 0xc3, 0x88, 0xde, 0x3d,
  0xb5, 0xa6, 0x20, 0xbe, 0x4c, 0x69, 0x66, 0x3d, 0x88, 0x60, 0x91, 0xbd,
  0x1a, 0xdd, 0x20, 0xbe, 0x66, 0x38, 0xa1, 0xbe, 0x3e, 0x7a, 0x93, 0xbe,
  0xfe, 0xb2, 0x72, 0x3c, 0xf4, 0xfb, 0x31, 0x3b, 0x85, 0xb5, 0xc4, 0x3e,
  0x01, 0xda, 0x80, 0xbd, 0x8f, 0xd7, 0x02, 0x3a, 0x8c, 0x56, 0xff, 0x3d,
  0x28, 0x8d, 0x13, 0xbc, 0x5a, 0x20, 0xe9, 0xbd, 0x0c, 0x4e, 0x52, 0xbe,
  0xd6, 0xf8, 0x13, 0xbe, 0x95, 0x3e, 0xaa, 0x3d, 0x18, 0x19, 0x1d, 0xbe,
  0x0b, 0x7d, 0x30, 0xbd, 0x82, 0xeb, 0x26, 0xbd, 0x08, 0x06, 0x2a, 0xbe,
  0xde, 0xdf, 0x17, 0xbe, 0xcd, 0x0a, 0x21, 0xbe, 0x15, 0x73, 0xdc, 0xbe,
  0x26, 0x9e, 0xba, 0x3e, 0xa0, 0x08, 0x56, 0xbe, 0x07, 0xd6, 0xc7, 0x3c,
  0xdd, 0x99, 0xcf, 0xbc, 0xd9, 0x54, 0xa2, 0xbe, 0x8e, 0x44, 0x13, 0xbe,
  0xc2, 0x15, 0x1b, 0xbe, 0xc4, 0xf4, 0x21, 0x3e, 0x05, 0x68, 0xfa, 0x3d,
  0xaf, 0x9b, 0xe0, 0xbe, 0xe2, 0x4d, 0xd4, 0xbd, 0xef, 0xc7, 0x1c, 0x3e,
  0x17, 0xdf, 0xfc, 0xbd, 0xc9, 0x88, 0x91, 0x3e, 0xac, 0xa6, 0x0a, 0xb8,
  0xb9, 0x2d, 0xa2, 0xbd, 0x07, 0x75, 0xbc, 0x3e, 0x95, 0x1d, 0xfe, 0xbd,
  0x66, 0x11, 0xc9, 0x3e, 0x2b, 0x4a, 0xa9, 0x3d, 0x1e, 0xf8, 0x4f, 0x3d,
  0x41, 0x88, 0x9f, 0x3e, 0xce, 0x6e, 0xd9, 0x3d, 0x78, 0x16, 0x12, 0x3c,
  0xe6, 0x19, 0x34, 0x3e, 0x54, 0x08, 0xb4, 0xbd, 0xdd, 0xd0, 0x86, 0x39,
  0x2c, 0xf0, 0x1b, 0x3f, 0x87, 0x2c, 0x1a, 0xbe, 0x18, 0x4e, 0x15, 0xbd,
  0x09, 0x29, 0x0f, 0x3e, 0xdc, 0xba, 0xdc, 0xbd, 0xb9, 0x73, 0x2d, 0xbd,
  0x7e, 0x6c, 0x65, 0xbe, 0xa7, 0xd3, 0xb1, 0x3e, 0xe5, 0x83, 0x37, 0x3e,
  0xf7, 0xef, 0x0e, 0xbd, 0x32, 0x66, 0x88, 0x3e, 0xf9, 0x4e, 0x73, 0xbd,
  0x46, 0x1c, 0xab, 0x3c, 0xa2, 0x04, 0xc5, 0x3e, 0x17, 0x41, 0x83, 0xbe,
  0xc0, 0xe7, 0xe0, 0xbc, 0xee, 0x2a, 0xfe, 0x3e, 0xf8, 0x35, 0x3b, 0xbd,
  0x42, 0xed, 0x78, 0x3e, 0xf5, 0x02, 0x5b, 0x3d, 0xb8, 0x6f, 0x38, 0xbe,
  0xef, 0x53, 0x19, 0x3e, 0x50, 0x25, 0x92, 0xbe, 0x48, 0xa4, 0x0b, 0x3e,
  0xd7, 0x2e, 0xa3, 0x3d, 0x05, 0x3a, 0x8a, 0x3e, 0x98, 0x60, 0x25, 0x3f,
  0x16, 0x49, 0x1a, 0xbd, 0x74, 0x8d, 0xf2, 0xbd, 0xbb, 0x9f, 0x63, 0x3c,
  0xc0, 0x79, 0x1a, 0xbe, 0x62, 0x33, 0xe3, 0x3d, 0x0a, 0x40, 0xbd, 0x3c,
  0xb1, 0xdd, 0xfb, 0x3d, 0xbf, 0xe4, 0x82, 0x3d, 0x10, 0x9e, 0x05, 0x3e,
  0x15, 0xb2, 0xb1, 0xbd, 0x91, 0x8d, 0x3a, 0x3d, 0x78, 0x34, 0x7c, 0xbe,
  0x1a, 0x03, 0xcf, 0x3e, 0xef, 0xe7, 0x16, 0x3e, 0xc5, 0x80, 0x77, 0x3c,
  0x02, 0xe5, 0x89, 0x3e, 0x52, 0x34, 0x84, 0xbe, 0x7a, 0x55, 0x5d, 0x3d,
  0x71, 0xad, 0x5f, 0xbd, 0x8a, 0xbd, 0x96, 0x3d, 0x97, 0x42, 0xcb, 0x3d,
  0x62, 0x4a, 0x56, 0x3c, 0xd4, 0x8e, 0x29, 0xbe, 0x3e, 0xf9, 0xb0, 0xbe,
  0xa7, 0xbb, 0x39, 0x3d, 0x78, 0xa7, 0x1f, 0xbe, 0x60, 0x7f, 0x14, 0x3d,
  0x46, 0x89, 0x25, 0xbf, 0x36, 0x90, 0xe4, 0x3e, 0xb6, 0x8b, 0x81, 0xbc,
  0xd2, 0x40, 0x82, 0xbc, 0xdb, 0xf1, 0x21, 0x3e, 0x66, 0x31, 0xd5, 0x3c,
  0xd8, 0x99, 0x7d, 0x3c, 0x45, 0x35, 0x7b, 0xbd, 0xe9, 0x92, 0x34, 0xbe,
  0x04, 0xe7, 0x61, 0x3d, 0x27, 0xcc, 0x1c, 0xbd, 0x32, 0x8a, 0x75, 0xbd,
  0x37, 0x09, 0x8d, 0xbe, 0x33, 0xfd, 0x49, 0x3d, 0x05, 0x75, 0xf1, 0xba,
  0xb3, 0xa8, 0x44, 0x3e, 0x80, 0x9f, 0xfc, 0xbe, 0x96, 0x96, 0x57, 0x3e,
  0x17, 0xfa, 0x19, 0x3d, 0x8b, 0xe1, 0xd3, 0xbd, 0xd8, 0x68, 0xd3, 0xbd,
  0x90, 0xe5, 0x97, 0xbe, 0x76, 0x5c, 0xe7, 0xbd, 0x58, 0x4e, 0xb7, 0xbd,
  0x32, 0x1d, 0x9c, 0xbe, 0x12, 0x37, 0x49, 0x3d, 0x9d, 0xb4, 0xbc, 0x3e,
  0xdc, 0x62, 0x8a, 0xbd, 0xda, 0xcc, 0xc7, 0x3d, 0x33, 0x36, 0xb7, 0x3d,
  0x8b, 0xe3, 0x42, 0x3e, 0x81, 0x87, 0x26, 0xbe, 0x0d, 0x91, 0x28, 0x3d,
  0xb3, 0x94, 0xd3, 0xbe, 0x0c, 0x4b, 0xf3, 0x3d, 0xe5, 0xd2, 0x63, 0x3e,
  0x15, 0xfd, 0x88, 0x3e, 0x0b, 0x2a, 0x09, 0x3e, 0x11, 0xac, 0x8d, 0xbd,
  0xfd, 0xf9, 0x4f, 0x3c, 0xa2, 0x93, 0xd3, 0xbb, 0xfb, 0x75, 0x41, 0xbe,
  0xce, 0xd0, 0xbe, 0xbe, 0x0f, 0x61, 0xbc, 0xbd, 0x60, 0x13, 0x31, 0xbe,
  0x38, 0x5a, 0xd0, 0xbd, 0xe6, 0xfc, 0xa1, 0xbc, 0xcb, 0x39, 0x3b, 0x3c,
  0x4b, 0xa5, 0x02, 0x3d, 0xfa, 0xac, 0x29, 0x3e, 0x85, 0xdf, 0xb5, 0xbd,
  0x8a, 0x6e, 0xfa, 0x3d, 0x68, 0xfe, 0xa3, 0xbe, 0xc7, 0x4e, 0x15, 0xbe,
  0xd4, 0x3c, 0x7d, 0xbe, 0xe2, 0x10, 0x3d, 0xbe, 0x7e, 0xa5, 0xe3, 0x3d,
  0x53, 0x2d, 0xbd, 0xbc, 0x9e, 0xc9, 0x3d, 0xbe, 0xfd, 0x7a, 0xad, 0x3a,
  0x1a, 0xaf, 0x35, 0xbe, 0xd8, 0x56, 0x6a, 0xbd, 0xa2, 0x5f, 0x07, 0xbe,
  0x58, 0x0d, 0xe5, 0xbd, 0x00, 0xac, 0x1f, 0x3c, 0x9c, 0xcf, 0x98, 0x3e,
  0xdb, 0x79, 0x89, 0xbe, 0xc1, 0xcc, 0xb9, 0xbd, 0x87, 0xf8, 0xb8, 0xbe,
  0x85, 0x85, 0x0e, 0xbe, 0xe7, 0x93, 0x34, 0xbe, 0x66, 0x79, 0x86, 0xbe,
  0xdf, 0xcb, 0x2e, 0xbe, 0xb4, 0x1b, 0x9a, 0xbe, 0x61, 0x04, 0x82, 0xbe,
  0xa2, 0x3c, 0xd2, 0xbe, 0xa9, 0xb3, 0x45, 0x3e, 0x92, 0x47, 0xc2, 0xbd,
  0xd9, 0x21, 0x19, 0xbf, 0x9f, 0x9f, 0xa1, 0xbc, 0x3e, 0x98, 0x94, 0xbd,
  0x7e, 0x49, 0x83, 0x3d, 0x19, 0x67, 0xda, 0xbe, 0x02, 0x6b, 0x6d, 0xbe,
  0xb6, 0x5a, 0x06, 0xbf, 0x0a, 0x3f, 0x59, 0xbe, 0x55, 0x9a, 0x4e, 0xbe,
  0xa4, 0x12, 0xbb, 0xbe, 0x34, 0x1b, 0x99, 0xbe, 0x61, 0x00, 0xe8, 0xbe,
  0xef, 0x07, 0x11, 0x3e, 0x63, 0xeb, 0x0a, 0xbe, 0x78, 0x7a, 0x7f, 0x3e,
  0xae, 0x79, 0x1b, 0xbd, 0xa0, 0x5e, 0xb7, 0xbe, 0xc8, 0x00, 0xeb, 0x3c,
  0xdc, 0x23, 0x0d, 0xbd, 0x60, 0x12, 0x4b, 0x3e, 0x9f, 0x06, 0x43, 0xbe,
  0xda, 0x39, 0x82, 0x3c, 0xed, 0x24, 0x7e, 0x3d, 0x6c, 0x9a, 0xc3, 0xbb,
  0x06, 0x06, 0x4c, 0xbe, 0x2f, 0x7e, 0x1a, 0x3e, 0xfb, 0x57, 0x3b, 0xbe,
  0xfa, 0xe2, 0xa4, 0xbe, 0xa7, 0xa7, 0x6d, 0x3e, 0xf2, 0x1e, 0xc9, 0x3d,
  0xbc, 0x3c, 0x07, 0x3f, 0xa0, 0x47, 0x0f, 0xbc, 0x68, 0xb0, 0x60, 0x3d,
  0x5e, 0x01, 0x84, 0xbd, 0x82, 0xa7, 0x29, 0x3c, 0x1a, 0xb2, 0xaa, 0x3d,
  0xc7, 0xde, 0x7b, 0x3d, 0x84, 0x3d, 0xa5, 0x3e, 0x6d, 0x0f, 0x11, 0x3e,
  0xfd, 0x0c, 0x22, 0x3e, 0x6f, 0x30, 0xcf, 0xbd, 0x17, 0x54, 0x65, 0x3e,
  0x7a, 0xf9, 0xcf, 0x3d, 0xf9, 0x35, 0xbd, 0xbe, 0xdd, 0xdc, 0xa7, 0x3e,
  0x8f, 0x53, 0x5c, 0xbd, 0x9b, 0x1f, 0xfe, 0x3e, 0x3f, 0x1c, 0xb1, 0xbc,
  0xc1, 0x5f, 0x54, 0xbb, 0x2b, 0x59, 0xc3, 0xbd, 0x00, 0x23, 0x14, 0xbd,
  0x10, 0x33, 0x2b, 0x3e, 0x74, 0xb1, 0x57, 0xbc, 0x66, 0x9c, 0xda, 0xbd,
  0x6d, 0x5c, 0x92, 0x3d, 0xd6, 0x25, 0x54, 0x3d, 0x20, 0x69, 0x5e, 0x3e,
  0x69, 0x49, 0x26, 0x3e, 0x3c, 0xd1, 0x0d, 0x3e, 0x65, 0xf1, 0x82, 0xbd,
  0xb8, 0x2d, 0x76, 0x3e, 0xe1, 0x88, 0x64, 0x3c, 0xf1, 0xed, 0xb1, 0x3e,
  0x7a, 0xc8, 0xb8, 0xbb, 0xcc, 0x54, 0x83, 0x3b, 0x62, 0x63, 0x0e, 0xbd,
  0x3a, 0xb7, 0x88, 0xbd, 0x6a, 0x54, 0xea, 0x3d, 0xd9, 0x5e, 0x2e, 0x3d,
  0xd3, 0xd5, 0x27, 0x3e, 0x89, 0xba, 0x85, 0x3e, 0x0b, 0x82, 0x78, 0x3e,
  0x48, 0x12, 0x1a, 0xbe, 0x82, 0xe9, 0xa0, 0x3d, 0xc9, 0xe0, 0x72, 0x3e,
  0xec, 0xa6, 0x80, 0xbe, 0x96, 0x71, 0x75, 0xbd, 0x4d, 0xb6, 0xe5, 0xbd,
  0x7e, 0xae, 0xc7, 0x3e, 0x3f, 0x8b, 0x4c, 0xbe, 0x2b, 0x3a, 0x9e, 0x3b,
  0x4b, 0xf4, 0x56, 0x3e, 0x43, 0x7d, 0x98, 0xbd, 0x1f, 0x57, 0x17, 0x3e,
  0x13, 0x7d, 0xd9, 0xbd, 0x64, 0xd9, 0x7a, 0x3e, 0xf2, 0x8f, 0x48, 0x3d,
  0xbe, 0x63, 0x0e, 0xbd, 0x2c, 0x0f, 0x17, 0x3e, 0xf0, 0x5e, 0xd5, 0x3d,
  0x6a, 0x80, 0xee, 0x3d, 0x75, 0x33, 0x70, 0xbd, 0x86, 0x91, 0xab, 0x3e,
  0x84, 0x4b, 0xbf, 0xbc, 0xeb, 0xae, 0x9f, 0x3e, 0x1c, 0x21, 0xb3, 0xbe,
  0xf0, 0xbe, 0x73, 0xbd, 0x6f, 0x61, 0x0d, 0xbc, 0x54, 0x6b, 0xb6, 0xbd,
  0xd9, 0x3e, 0xad, 0x3e, 0x0f, 0xf6, 0x8b, 0xbe, 0xe6, 0x29, 0x40, 0xbe,
  0x48, 0x48, 0xcb, 0xbe, 0x35, 0x51, 0x66, 0xbd, 0x36, 0xe2, 0xcc, 0xbd,
  0x1e, 0x55, 0xac, 0x3d, 0x0f, 0xd8, 0xa0, 0x3d, 0x8a, 0x82, 0x7a, 0xbe,
  0xe5, 0x8e, 0x7c, 0x3e, 0xdb, 0x55, 0x7b, 0xbe, 0x77, 0x8f, 0xf5, 0x3e,
  0x41, 0x49, 0xee, 0xbe, 0xa7, 0x73, 0xc0, 0xbe, 0x63, 0xec, 0x0e, 0xbe,
  0x19, 0x4b, 0x9a, 0x3c, 0xc2, 0x18, 0xa2, 0x3e, 0x1e, 0x2a, 0x8d, 0xbd,
  0x64, 0xaa, 0xc7, 0xbd, 0xbb, 0xc4, 0xe5, 0xbd, 0x17, 0x86, 0x4b, 0x3e,
  0x3b, 0x80, 0x8f, 0xbe, 0x4b, 0x6c, 0x34, 0xbe, 0xaf, 0x7a, 0x39, 0xbe,
  0xbe, 0x49, 0x2d, 0xbe, 0x7c, 0x0b, 0xe0, 0x3d, 0xc6, 0x20, 0xf8, 0x3d,
  0x04, 0x8c, 0xd9, 0x3e, 0x2b, 0xf1, 0x52, 0xbe, 0x4c, 0xa7, 0xaa, 0xbd,
  0x20, 0xe3, 0xb1, 0x3d, 0x1b, 0x34, 0xfb, 0x3c, 0xd7, 0x83, 0x6a, 0x3c,
  0x0e, 0xb1, 0x99, 0xbd, 0x01, 0xdc, 0x7c, 0xbe, 0xfd, 0xa5, 0x6b, 0xbd,
  0x42, 0x7c, 0x12, 0xbe, 0x9c, 0x01, 0x5f, 0xbe, 0xa6, 0x0a, 0x01, 0x3e,
  0x26, 0x0f, 0x8d, 0xbe, 0xa1, 0x3a, 0x3f, 0xbe, 0x2f, 0x77, 0xbf, 0x3e,
  0x7a, 0xa6, 0x66, 0x3e, 0x14, 0xf0, 0x01, 0x3f, 0x85, 0xd6, 0x58, 0xbe,
  0xd2, 0x35, 0xa1, 0x3d, 0xd0, 0xb4, 0x1b, 0x3c, 0xed, 0x57, 0x14, 0x3d,
  0x48, 0x8d, 0x57, 0x3e, 0x95, 0x61, 0x87, 0xbe, 0xca, 0x6d, 0x9a, 0x3d,
  0x7e, 0x11, 0xe1, 0x3c, 0x89, 0x75, 0x3f, 0x3e, 0x4f, 0xf8, 0x06, 0xbe,
  0x7c, 0x47, 0xb9, 0x3d, 0x9e, 0x02, 0xa2, 0x3d, 0x69, 0xd0, 0x9c, 0xbd,
  0x48, 0x33, 0xd2, 0x3e, 0x76, 0x38, 0xd4, 0x3d, 0xe5, 0x5a, 0xd5, 0x3e,
  0xa1, 0x4e, 0x06, 0xbe, 0x9d, 0xb0, 0xc9, 0xbd, 0x2b, 0x89, 0xee, 0xbb,
  0xfb, 0xec, 0x4e, 0xb9, 0xa4, 0x31, 0x9d, 0x3e, 0x74, 0x89, 0x9d, 0xbc,
  0xbf, 0xa2, 0x69, 0x3b, 0x9b, 0x86, 0x58, 0xbe, 0x1d, 0x06, 0xbc, 0x3d,
  0xc2, 0xeb, 0x80, 0xbd, 0xf9, 0xc5, 0xb3, 0xbd, 0x0a, 0xa1, 0x4d, 0x3e,
  0xf6, 0xa2, 0xf2, 0xbd, 0x5b, 0xfa, 0xf7, 0xbd, 0xda, 0xa5, 0x3b, 0x3e,
  0xbc, 0xf1, 0x94, 0x3e, 0xc7, 0x14, 0x73, 0xbe, 0xe1, 0x3f, 0xa2, 0xbd,
  0x0d, 0xc5, 0x76, 0x3c, 0x96, 0x61, 0xc3, 0x3d, 0xbb, 0xed, 0x44, 0xbe,
  0x28, 0xe0, 0x68, 0xbd, 0x39, 0x02, 0xbe, 0xbd, 0xb7, 0x04, 0x6f, 0x3d,
  0xc3, 0xb9, 0x08, 0x3d, 0x5a, 0x18, 0xaf, 0x3d, 0xc8, 0x3a, 0x0f, 0x3e,
  0x0f, 0xd7, 0xd1, 0xbd, 0xc3, 0xfd, 0x81, 0xbe, 0x93, 0x7a, 0x9b, 0x3e,
  0xac, 0xcf, 0x2e, 0xbd, 0x6b, 0x19, 0xbb, 0x3b, 0xb4, 0xa4, 0xc2, 0xbe,
  0x3b, 0x90, 0x49, 0xbd, 0xe7, 0x41, 0xa7, 0x3e, 0x06, 0x4f, 0x2a, 0xbd,
  0xc0, 0x7d, 0xd5, 0x3b, 0xeb, 0x74, 0x88, 0xbc, 0x12, 0x10, 0x10, 0xbe,
  0x7d, 0x97, 0x8f, 0xbe, 0xcb, 0x6b, 0xce, 0x3d, 0xb2, 0x62, 0x85, 0xbc,
  0x59, 0x31, 0x29, 0xbe, 0x5f, 0xd9, 0x18, 0xbe, 0xc3, 0xc2, 0x70, 0x3d,
  0xfa, 0xee, 0xd0, 0x3e, 0x01, 0xc3, 0x40, 0xbe, 0xf7, 0xd4, 0x15, 0xbe,
  0x49, 0xc7, 0x04, 0xbe, 0x83, 0x75, 0x5a, 0x3e, 0x80, 0x21, 0x6c, 0x3d,
  0x5e, 0xb4, 0x1a, 0x3c, 0xed, 0xc0, 0xa6, 0xbb, 0xe1, 0x4e, 0x28, 0xbe,
  0x58, 0xe3, 0xc6, 0x3d, 0x23, 0x48, 0x92, 0xbd, 0x14, 0x56, 0x2e, 0xbe,
  0xc5, 0xf8, 0x13, 0x3e, 0x60, 0xc5, 0xbf, 0x3d, 0xd0, 0x39, 0x44, 0xbe,
  0x16, 0xa8, 0xc3, 0x3b, 0x85, 0xfa, 0xd9, 0x3e, 0xa0, 0x52, 0x96, 0x3d,
  0xe9, 0xb1, 0x38, 0xbe, 0xc2, 0x78, 0xb1, 0xbe, 0xd1, 0xa0, 0x50, 0x3c,
  0x45, 0x0a, 0x38, 0x3e, 0x19, 0x31, 0x07, 0xbe, 0x48, 0x5a, 0xee, 0xba,
  0x11, 0x0d, 0x04, 0xbe, 0x68, 0xb9, 0x5e, 0xbe, 0xdd, 0xfc, 0x35, 0x3d,
  0x62, 0xcf, 0x55, 0xbe, 0x08, 0xe3, 0x2f, 0x3e, 0x87, 0xdc, 0xd6, 0xbd,
  0xb8, 0xe3, 0x51, 0x3d, 0xda, 0x1b, 0x00, 0x3e, 0x26, 0x75, 0x71, 0x3e,
  0xb6, 0x95, 0x60, 0x3d, 0x6f, 0xd4, 0x3c, 0xbe, 0x4a, 0x5a, 0xef, 0xbd,
  0x44, 0xaa, 0x34, 0x3e, 0x0f, 0x88, 0x19, 0x3f, 0x0d, 0xf7, 0x2c, 0xbe,
  0xf8, 0xac, 0x62, 0x3e, 0xb8, 0x8e, 0x48, 0xbe, 0x07, 0x13, 0xb2, 0xbd,
  0xbb, 0x1f, 0x00, 0x3e, 0xf9, 0xe2, 0x1d, 0xbe, 0xeb, 0x09, 0x20, 0x3e,
  0xa7, 0x5f, 0x27, 0x3e, 0x74, 0x52, 0x78, 0x3d, 0xb1, 0x90, 0xfe, 0xbb,
  0x23, 0xf4, 0x4a, 0x3e, 0xc5, 0xd6, 0x73, 0x3d, 0x9f, 0xd0, 0x39, 0xbe,
  0xae, 0xed, 0x8b, 0x3b, 0x3a, 0xf1, 0xf7, 0x3d, 0x86, 0x03, 0xe0, 0x3e,
  0xa3, 0xc5, 0x71, 0xbe, 0x34, 0x50, 0x5f, 0xbd, 0x42, 0xa4, 0xa2, 0xbe,
  0x42, 0xbc, 0x16, 0xbe, 0x93, 0x99, 0x2b, 0xbd, 0xa0, 0x90, 0x8e, 0x3d,
  0x0e, 0xf9, 0xb4, 0x3d, 0xf1, 0x50, 0xe5, 0xbc, 0x08, 0x78, 0x9f, 0xbd,
  0x54, 0x8d, 0xb6, 0x3d, 0x00, 0x1b, 0x51, 0x3e, 0xae, 0x90, 0x3e, 0xbe,
  0x9a, 0xf6, 0x3d, 0x3d, 0xe4, 0xdc, 0x24, 0xbe, 0xd6, 0x2c, 0x48, 0xbe,
  0x48, 0x8a, 0x8d, 0x3e, 0x2d, 0x7a, 0xf3, 0xbd, 0x41, 0xc5, 0x57, 0x3e,
  0x78, 0xd0, 0xe8, 0xbd, 0x39, 0x31, 0x86, 0x3d, 0x42, 0x47, 0xf7, 0xbd,
  0xa5, 0x78, 0xbf, 0xbd, 0xdd, 0x1f, 0x24, 0xbe, 0x89, 0x62, 0xab, 0xbc,
  0x9b, 0xd0, 0xf0, 0xbc, 0xbd, 0x8a, 0x30, 0xbe, 0xe1, 0x07, 0x82, 0x3e,
  0x4d, 0xd8, 0x8b, 0x3c, 0x11, 0x0b, 0x24, 0xbd, 0x7e, 0xfb, 0xe4, 0xbe,
  0x18, 0xc5, 0xb2, 0x3e, 0x9b, 0x86, 0x9a, 0xbe, 0x06, 0x17, 0x4c, 0xbe,
  0x04, 0x5c, 0x50, 0x3d, 0x54, 0xb6, 0x16, 0xbe, 0x2c, 0xb7, 0x76, 0xbe,
  0xc3, 0x6a, 0xc5, 0xbe, 0x17, 0xc8, 0x94, 0xbe, 0x9e, 0xed, 0x97, 0xbe,
  0xad, 0x72, 0xa9, 0xbe, 0x8f, 0xbc, 0x65, 0xbd, 0x64, 0x11, 0xd3, 0x3d,
  0x6f, 0x58, 0x8e, 0x3d, 0x90, 0xc7, 0xb3, 0x3e, 0xdd, 0xce, 0x1b, 0xbc,
  0x15, 0x6f, 0xdc, 0xbe, 0x74, 0xe6, 0x11, 0x3d, 0xf1, 0x14, 0x28, 0xbe,
  0x77, 0x88, 0xe9, 0xbd, 0xfd, 0x92, 0xf6, 0xbc, 0xbf, 0x51, 0xf0, 0xbd,
  0xfb, 0x6b, 0xd1, 0x3c, 0xed, 0x37, 0x87, 0xbe, 0xdc, 0xd5, 0x0b, 0x3e,
  0x44, 0x17, 0x2f, 0xbe, 0x09, 0x76, 0x31, 0xbe, 0x36, 0xce, 0x8b, 0xbd,
  0xb2, 0xb2, 0xbc, 0x3d, 0xbb, 0x1e, 0x29, 0xbe, 0x42, 0x8c, 0xbb, 0x3e,
  0xfd, 0xa4, 0xd7, 0x3e, 0xfe, 0x0b, 0x7f, 0xbe, 0xac, 0x23, 0x0e, 0x3e,
  0x50, 0xe9, 0xd9, 0xbe, 0xcf, 0x88, 0xc3, 0x3b, 0x4d, 0x3d, 0x94, 0x3d,
  0x16, 0x33, 0x40, 0x3d, 0xfe, 0xba, 0x39, 0xbe, 0x32, 0x6c, 0x7b, 0xbe,
  0x90, 0x05, 0x0f, 0x3e, 0x67, 0x52, 0xb2, 0x3c, 0x03, 0x6b, 0xc8, 0xbe,
  0x08, 0xef, 0x20, 0x3e, 0x83, 0x53, 0x58, 0x3d, 0x38, 0x92, 0xe0, 0x3d,
  0x69, 0x43, 0x99, 0x3e, 0xad, 0x33, 0xe1, 0x3e, 0x1c, 0x40, 0x51, 0xbe,
  0x69, 0x21, 0x45, 0x3e, 0xac, 0x28, 0x87, 0xbe, 0xe0, 0x10, 0xd4, 0xbd,
  0xcb, 0xac, 0x26, 0x3e, 0xfb, 0x02, 0x04, 0x3e, 0xcf, 0xa5, 0x94, 0xbd,
  0x84, 0xdb, 0x71, 0xbe, 0xb1, 0x94, 0xf8, 0x3c, 0x40, 0xc1, 0x57, 0x3b,
  0x3c, 0xf1, 0x05, 0xbe, 0x1c, 0x27, 0x8f, 0x3e, 0x73, 0xc6, 0x76, 0x3e,
  0xde, 0x4c, 0x34, 0xbc, 0x7f, 0x17, 0x2c, 0x3e, 0x20, 0x7b, 0x12, 0x3e,
  0x09, 0x9e, 0x3d, 0xbe, 0x6b, 0xa2, 0x3b, 0x3e, 0x2d, 0x65, 0x11, 0xbf,
  0xa3, 0x9d, 0x1e, 0xbe, 0x3f, 0xa7, 0x18, 0x3d, 0x6f, 0x46, 0xe2, 0x3d,
  0x34, 0x64, 0x39, 0x3c, 0xb3, 0xd2, 0xc8, 0xbe, 0x51, 0x7f, 0x6b, 0xbe,
  0x0d, 0x6f, 0x98, 0x3d, 0x54, 0x27, 0x9d, 0xbd, 0x12, 0x58, 0x36, 0x3e,
  0x3c, 0x3d, 0x46, 0x3e, 0xe0, 0x4b, 0x13, 0xbf, 0x02, 0x35, 0x44, 0x3e,
  0x8c, 0xd7, 0x00, 0xbe, 0xbb, 0xb7, 0xad, 0xbe, 0xe1, 0x4a, 0xc4, 0x3e,
  0xe9, 0x07, 0x56, 0xbe, 0xcf, 0xa2, 0x37, 0x3e, 0xf6, 0x1e, 0x7e, 0x3d,
  0x33, 0xe6, 0xe1, 0xbd, 0x64, 0x50, 0xeb, 0xbe, 0xba, 0xc7, 0x9d, 0xbe,
  0x4e, 0x1d, 0x64, 0xbe, 0x3f, 0xd8, 0xd5, 0xbd, 0x72, 0xc9, 0x83, 0xbc,
  0xfa, 0x8e, 0x76, 0xbe, 0x99, 0xc0, 0xda, 0xbc, 0x36, 0x9e, 0x91, 0xbd,
  0xb7, 0xfd, 0xbf, 0x3e, 0x13, 0x13, 0x93, 0x3d, 0x73, 0x21, 0x24, 0xbd,
  0x49, 0xc7, 0xd7, 0x3d, 0x46, 0xce, 0x05, 0xbe, 0x9d, 0x28, 0x52, 0x3d,
  0x3e, 0x38, 0xc5, 0x3b, 0x08, 0xe1, 0x89, 0xbd, 0x85, 0x08, 0x50, 0xbe,
  0xc1, 0x28, 0x9a, 0xbc, 0xf7, 0xa0, 0x67, 0xbd, 0xd7, 0x6d, 0x4b, 0x3e,
  0xd6, 0x42, 0xdf, 0xbe, 0x58, 0x25, 0x8c, 0x3c, 0xaa, 0x89, 0x10, 0xbd,
  0x6f, 0x81, 0x6f, 0xbc, 0x8d, 0x8d, 0xae, 0x3e, 0x30, 0xea, 0xeb, 0x3d,
  0xb2, 0x5f, 0x37, 0xbe, 0x55, 0xe7, 0x23, 0x3e, 0xc6, 0x61, 0x42, 0xbd,
  0x41, 0x54, 0x9f, 0xbd, 0x5f, 0x6d, 0x55, 0x3e, 0x73, 0x9d, 0x29, 0xbc,
  0x94, 0xf5, 0x6e, 0xbe, 0x88, 0x35, 0x80, 0xbe, 0xb6, 0x5d, 0xae, 0xbd,
  0x48, 0xdf, 0xcf, 0xbe, 0xb6, 0x2c, 0x91, 0xbe, 0x81, 0x3a, 0x61, 0xbd,
  0xfe, 0xb8, 0x9c, 0x3e, 0x3b, 0x5d, 0x60, 0x3d, 0x92, 0x9f, 0x94, 0x3e,
  0x42, 0xf7, 0x10, 0xbe, 0xc0, 0xa5, 0x9e, 0xbe, 0x36, 0x4f, 0x7b, 0x3e,
  0x0b, 0xb0, 0x1a, 0xbe, 0x8d, 0xb0, 0x84, 0xbd, 0x18, 0x6b, 0x4e, 0xbf,
  0x6b, 0x27, 0x80, 0xbd, 0xa3, 0xc3, 0xa5, 0x3d, 0x81, 0x2d, 0x6d, 0xbe,
  0x53, 0xee, 0xa9, 0xbd, 0x6e, 0x13, 0x22, 0xbd, 0xc0, 0x4c, 0x9b, 0xbe,
  0x45, 0xd1, 0x88, 0x3c, 0xda, 0x4a, 0x0c, 0x3e, 0x18, 0x22, 0x9f, 0xbe,
  0xeb, 0x3e, 0x11, 0x3e, 0xe9, 0xea, 0xa1, 0xbe, 0x59, 0xca, 0x50, 0xbe,
  0xc2, 0xfd, 0x7c, 0x3e, 0xa1, 0x00, 0x8d, 0xbe, 0xa9, 0x4b, 0x04, 0x3d,
  0xcc, 0x40, 0x03, 0xbf, 0x57, 0x93, 0x13, 0xbd, 0xd1, 0xf0, 0x92, 0x3e,
  0x27, 0xc7, 0x2f, 0xbe, 0x0a, 0xfa, 0xd4, 0x3c, 0xe8, 0xdb, 0xbb, 0x3d,
  0xb8, 0x6d, 0x05, 0xbe, 0x9a, 0xce, 0xb3, 0x3e, 0xfe, 0x48, 0x11, 0x3e,
  0x26, 0xdb, 0x98, 0xbc, 0x7e, 0x1d, 0xa2, 0x3e, 0xc1, 0x12, 0x93, 0xbe,
  0x17, 0x80, 0x15, 0xbe, 0xb5, 0xa7, 0xe5, 0x3e, 0xcf, 0x6a, 0x8a, 0xbe,
  0xf4, 0x6c, 0x9c, 0x3d, 0x45, 0x0b, 0xc7, 0xbe, 0xe6, 0x70, 0x7c, 0x3d,
  0xd8, 0x1b, 0x01, 0x3e, 0x94, 0x13, 0x77, 0xbe, 0x8f, 0x3a, 0x37, 0x3d,
  0x96, 0x2e, 0x07, 0x3d, 0x51, 0x2c, 0x7c, 0xbe, 0x89, 0xea, 0x73, 0x3e,
  0x38, 0xc3, 0x12, 0x3e, 0x95, 0x63, 0x85, 0xbc, 0x03, 0xdf, 0x3f, 0x3e,
  0xf3, 0x78, 0x14, 0xbd, 0x37, 0xd5, 0x8a, 0xbe, 0x76, 0x67, 0xc9, 0x3e,
  0x4e, 0xa9, 0x74, 0x3d, 0x42, 0xfc, 0x62, 0x3d, 0x8f, 0x4c, 0x98, 0xbe,
  0x64, 0x10, 0xdc, 0x3d, 0xf0, 0x8f, 0xca, 0x3d, 0x58, 0xc3, 0xd7, 0xbe,
  0xab, 0x2b, 0xf8, 0xbe, 0x3f, 0x22, 0x9a, 0x3d, 0x99, 0x23, 0x10, 0xbe,
  0xb3, 0x66, 0x0c, 0x3e, 0x7d, 0x4d, 0x14, 0x3e, 0x90, 0x99, 0x70, 0xbe,
  0x0e, 0xba, 0x58, 0x3e, 0xbb, 0x73, 0xd7, 0xbe, 0x1d, 0x0a, 0x80, 0xbe,
  0x9e, 0xf8, 0x0a, 0x3e, 0x4f, 0xf4, 0xd6, 0x3d, 0xe6, 0x88, 0x97, 0x3d,
  0x43, 0xa5, 0x84, 0xbd, 0xc2, 0x3b, 0x8f, 0x3d, 0xc9, 0x81, 0x9a, 0xbe,
  0x0d, 0xc1, 0xa9, 0xbe, 0x12, 0xc5, 0x95, 0xbe, 0xcb, 0xf6, 0x0e, 0x3e,
  0x87, 0xa1, 0xdb, 0xbd, 0xa7, 0x2f, 0x98, 0xbb, 0x7d, 0x08, 0x2c, 0x3e,
  0x9e, 0xc7, 0x88, 0xbc, 0x3c, 0x96, 0x68, 0x3e, 0xaa, 0x2a, 0xc3, 0xbd,
  0x18, 0xb6, 0x4e, 0x3c, 0xdf, 0x92, 0x72, 0x3b, 0xab, 0x30, 0xfd, 0x3c,
  0x2a, 0xec, 0x8d, 0xbd, 0xc0, 0xf4, 0x35, 0xbe, 0xe1, 0xff, 0x2a, 0xbd,
  0xf8, 0xad, 0xbc, 0xbd, 0xc9, 0x09, 0x5c, 0xbd, 0x52, 0x40, 0xe5, 0xbc,
  0x51, 0xa0, 0x1f, 0x3e, 0xac, 0xd4, 0x0c, 0xbe, 0xee, 0xca, 0x40, 0x3d,
  0xd9, 0x2a, 0xa6, 0x3d, 0xe2, 0x85, 0x00, 0xbe, 0xe1, 0x9e, 0x37, 0x3e,
  0x39, 0x65, 0xfc, 0xbb, 0xd2, 0xac, 0x75, 0xbe, 0xcc, 0xc3, 0xbd, 0x3e,
  0xac, 0x30, 0xa8, 0xbe, 0x41, 0x5a, 0x42, 0xbe, 0xb4, 0xbc, 0xec, 0x3d,
  0x09, 0x4f, 0xe3, 0x3d, 0xad, 0x92, 0x6e, 0xbe, 0xad, 0xff, 0xbb, 0xbe,
  0xe1, 0x70, 0xb7, 0xbe, 0xf6, 0x83, 0x85, 0xbe, 0xd7, 0xfe, 0xc7, 0xbe,
  0xbf, 0x50, 0x69, 0xbd, 0x41, 0x22, 0x58, 0x3e, 0xee, 0xb5, 0xf8, 0x3d,
  0xe4, 0x53, 0xc7, 0x3e, 0x55, 0x2f, 0x7f, 0x3c, 0x02, 0xdb, 0x33, 0xbe,
  0xc9, 0x42, 0xc6, 0x3e, 0x4e, 0x3a, 0xe9, 0xbd, 0x89, 0x74, 0xe5, 0xbd,
  0x04, 0x5b, 0x3f, 0xbf, 0x9e, 0xf6, 0xa4, 0xbd, 0xf0, 0x3c, 0xbe, 0x3c,
  0x7d, 0x7b, 0x5f, 0xbe, 0x90, 0x01, 0x52, 0x3d, 0xeb, 0x87, 0x8b, 0xbd,
  0x70, 0xc7, 0x62, 0xbe, 0x8c, 0xd4, 0x06, 0xbd, 0x6d, 0xc1, 0x1a, 0x3e,
  0x50, 0x9c, 0xb5, 0xbe, 0xa7, 0xa2, 0x6f, 0x3e, 0xf5, 0x55, 0x1b, 0xbf,
  0x1c, 0x7c, 0xe1, 0xbc, 0x81, 0x7d, 0x72, 0x3e, 0x45, 0x06, 0xd5, 0xbd,
  0x71, 0x50, 0xdb, 0xbc, 0x3a, 0x60, 0x1e, 0xbf, 0x15, 0x05, 0x76, 0xbd,
  0x03, 0x7e, 0x9b, 0x3e, 0x9b, 0x3a, 0x23, 0xbe, 0xd5, 0xa7, 0x9b, 0x3d,
  0x1f, 0xf2, 0xc7, 0x3d, 0x05, 0x5a, 0x53, 0xbe, 0xc8, 0xe7, 0xa4, 0x3e,
  0x9a, 0x8a, 0x50, 0xbe, 0x5a, 0x1d, 0x20, 0xbe, 0x9a, 0xfd, 0x9e, 0x3e,
  0x9f, 0x03, 0x24, 0xbd, 0x80, 0x2d, 0x18, 0xbe, 0x1e, 0xb3, 0xbb, 0x3e,
  0x6c, 0x04, 0xb3, 0xbe, 0x0c, 0xc4, 0x35, 0x3d, 0x68, 0x71, 0xa7, 0xbd,
  0x73, 0xd8, 0x35, 0xbd, 0xf8, 0xeb, 0x86, 0x3e, 0x2d, 0xc7, 0xb0, 0xbe,
  0xf6, 0x5b, 0xaf, 0xbc, 0xde, 0x5b, 0x07, 0x3e, 0x89, 0x27, 0xd5, 0xbe,
  0x3a, 0x20, 0x39, 0x3e, 0xef, 0x28, 0x08, 0x3c, 0x09, 0x9b, 0xdb, 0x3d,
  0xae, 0xd6, 0x57, 0x3d, 0x9b, 0x73, 0x8d, 0xbe, 0xfb, 0x80, 0x19, 0xbd,
  0x46, 0xc7, 0x93, 0x3e, 0x2e, 0xd2, 0x92, 0x3b, 0xa3, 0x54, 0x28, 0xbd,
  0xd5, 0xd9, 0xde, 0xbe, 0x15, 0xb4, 0xe3, 0xbc, 0x96, 0xb5, 0x86, 0xbe,
  0x75, 0x00, 0xf2, 0xbe, 0xc2, 0x52, 0x95, 0xbe, 0x48, 0x8d, 0x85, 0x3e,
  0xc8, 0x39, 0x55, 0xbe, 0x19, 0xc5, 0x59, 0x3e, 0x5a, 0x27, 0xf7, 0x3d,
  0xe6, 0x54, 0xae, 0xbe, 0xfe, 0xa7, 0x7d, 0x3e, 0xe0, 0x13, 0x0a, 0xbf,
  0x80, 0x18, 0x42, 0xbe, 0x3e, 0x50, 0x38, 0x3e, 0xe2, 0xbe, 0x9d, 0xbd,
  0x96, 0x57, 0xb8, 0x3d, 0xa3, 0xbe, 0xbc, 0xbd, 0x1f, 0xe8, 0x04, 0x3e,
  0xd2, 0xe8, 0x03, 0xbf, 0x4d, 0x4c, 0x5e, 0xbe, 0xad, 0xc8, 0x38, 0xbe,
  0x97, 0x61, 0x42, 0x3e, 0x41, 0xf1, 0x5b, 0xbe, 0xc7, 0x3e, 0xe7, 0x3d,
  0xae, 0xd7, 0x2f, 0x3e, 0x85, 0x66, 0x9b, 0xbd, 0x69, 0x74, 0x6f, 0x3e,
  0x32, 0xc2, 0x04, 0xbf, 0x7b, 0x30, 0x34, 0x3d, 0xa3, 0xbc, 0x47, 0x3d,
  0xfd, 0xf2, 0x27, 0xbd, 0x75, 0x19, 0x76, 0xbc, 0xbf, 0xa9, 0xc1, 0xbe,
  0x95, 0x80, 0x63, 0xbd, 0x32, 0x13, 0x31, 0xbe, 0x57, 0x36, 0x1b, 0x3d,
  0x4d, 0xe5, 0x3d, 0x3d, 0xcf, 0xe9, 0x55, 0x3e, 0x69, 0xd2, 0xdb, 0xbe,
  0x8c, 0xff, 0xbc, 0x3d, 0x43, 0x8e, 0xee, 0x3c, 0xf0, 0xb1, 0x6d, 0xbe,
  0xe4, 0xc5, 0x18, 0x3e, 0x80, 0x47, 0x3c, 0xbe, 0x9c, 0xdd, 0xc5, 0xbd,
  0x7f, 0x3d, 0xd2, 0xbe, 0x39, 0x82, 0x10, 0x3e, 0x10, 0x49, 0xc2, 0xbd,
  0xe0, 0x53, 0x78, 0x3c, 0x67, 0xb8, 0x01, 0x3e, 0x73, 0x7d, 0x24, 0xbe,
  0x3b, 0xca, 0xce, 0xbd, 0x6e, 0x58, 0x49, 0x3d, 0x2a, 0x70, 0xed, 0xbd,
  0xb2, 0xb5, 0x6a, 0x3e, 0xbb, 0xde, 0xb0, 0xbe, 0x16, 0xa1, 0x75, 0xbe,
  0x5f, 0x1f, 0x32, 0xbe, 0xb6, 0x12, 0xc4, 0xbd, 0x59, 0xa1, 0xd5, 0x3c,
  0xb5, 0xc3, 0x84, 0x3d, 0xa2, 0x06, 0xd9, 0x3c, 0xbf, 0x71, 0x05, 0x3f,
  0x35, 0x8b, 0x84, 0xbe, 0x15, 0x30, 0xd1, 0xbd, 0xe4, 0x37, 0xb9, 0x3d,
  0x31, 0x33, 0x23, 0xbe, 0x92, 0x8d, 0xaf, 0x3d, 0x9b, 0x48, 0xb9, 0xbd,
  0x92, 0x2a, 0xbb, 0xbd, 0xf6, 0x5d, 0x8b, 0x3e, 0x78, 0x75, 0x2c, 0x3e,
  0x0e, 0x1a, 0x1f, 0xbe, 0x5c, 0x14, 0xa1, 0x3e, 0x6f, 0x03, 0xc3, 0xbe,
  0xaa, 0x2a, 0x5f, 0xbe, 0x2a, 0xd9, 0x06, 0x3e, 0x13, 0x92, 0x35, 0x3e,
  0xba, 0x9a, 0xe3, 0x3e, 0xa3, 0x02, 0x2b, 0xbe, 0x7b, 0x7f, 0x1c, 0x3e,
  0x5d, 0x66, 0x16, 0x3e, 0xca, 0x6d, 0x19, 0xbd, 0xe7, 0x87, 0x27, 0x3e,
  0xc9, 0x87, 0xdc, 0x3d, 0x3e, 0x6f, 0x94, 0xbd, 0x7a, 0x9f, 0xaf, 0x3e,
  0xfc, 0xaa, 0x03, 0x3e, 0xb1, 0x48, 0x1a, 0xbe, 0x39, 0x07, 0x82, 0x3e,
  0x42, 0x37, 0xcd, 0xbd, 0x20, 0xed, 0x11, 0xbe, 0x35, 0xd0, 0xd1, 0x3d,
  0x49, 0x0a, 0x1b, 0x3d, 0xa5, 0xc2, 0x67, 0x3e, 0xf7, 0x37, 0xa4, 0x3c,
  0xc9, 0xe7, 0xaa, 0xbd, 0x45, 0xce, 0xba, 0x3d, 0x77, 0x84, 0x03, 0x3e,
  0xc8, 0xe0, 0x9b, 0x3e, 0x8d, 0x9e, 0xa1, 0x3c, 0x97, 0xc2, 0x5a, 0x3e,
  0x7e, 0xaf, 0x66, 0x3e, 0xab, 0x2a, 0xb1, 0x3d, 0xf7, 0xa2, 0x87, 0x3c,
  0x21, 0x3f, 0xa2, 0x3d, 0x91, 0x01, 0x1d, 0x3d, 0x50, 0x63, 0xb3, 0x3c,
  0x9a, 0xeb, 0xc8, 0xbb, 0xe2, 0x21, 0xdd, 0x3d, 0x53, 0x19, 0x02, 0x3f,
  0x99, 0xc8, 0xa1, 0xbd, 0x53, 0x43, 0x3c, 0x3e, 0xc1, 0x57, 0x50, 0x3d,
  0xdf, 0xc7, 0x66, 0x3d, 0x03, 0xb7, 0xd3, 0xbd, 0xd8, 0xfe, 0x16, 0x3d,
  0xc8, 0x16, 0x94, 0x3e, 0xb4, 0xf7, 0x39, 0x3c, 0xeb, 0x0f, 0x71, 0xbe,
  0xd1, 0x65, 0xd3, 0xbc, 0xd2, 0x61, 0x5a, 0x3d, 0x0e, 0x1f, 0x26, 0xbe,
  0x6a, 0x0b, 0xf0, 0x3d, 0x5b, 0xd8, 0x3a, 0x3b, 0xc1, 0xae, 0x80, 0xbd,
  0xdd, 0x43, 0x97, 0x3e, 0x75, 0x0c, 0xc5, 0xbe, 0x92, 0x40, 0x6c, 0x3e,
  0x2a, 0xf8, 0x7a, 0x3d, 0x8c, 0xd3, 0x1d, 0xbe, 0x13, 0x74, 0xd4, 0x3d,
  0x18, 0x3c, 0xad, 0xbc, 0x45, 0x4f, 0x41, 0x3e, 0x79, 0x3f, 0x0b, 0xbe,
  0x5f, 0x72, 0x3c, 0xbe, 0x00, 0x4e, 0x20, 0xbd, 0xca, 0x89, 0x80, 0x3d,
  0xc8, 0x7f, 0x80, 0xbe, 0xf0, 0x66, 0x1e, 0x3e, 0x4a, 0x92, 0xbe, 0xbe,
  0xb3, 0xdf, 0x87, 0xbc, 0xe0, 0xd1, 0x12, 0x3f, 0xe1, 0x5d, 0x3a, 0xbe,
  0x06, 0x33, 0xa2, 0x3e, 0xa9, 0x97, 0x4f, 0x3e, 0xb3, 0x21, 0xf1, 0xbb,
  0x17, 0x54, 0xf3, 0xbc, 0x8c, 0x4c, 0x38, 0xbe, 0x17, 0x19, 0xa3, 0x3e,
  0x46, 0x72, 0x2b, 0xbe, 0xee, 0xa8, 0x66, 0xbe, 0x38, 0x28, 0x13, 0x3c,
  0x47, 0xa9, 0x37, 0x3d, 0xb9, 0x1b, 0x8d, 0xbe, 0x10, 0xa4, 0x6e, 0x3e,
  0xf8, 0x3d, 0xb3, 0xbc, 0x35, 0x7d, 0x38, 0xbd, 0x37, 0xf4, 0x9e, 0xbd,
  0xaf, 0x1c, 0xe1, 0xbd, 0x6d, 0xeb, 0xb8, 0x3c, 0x6b, 0x39, 0x17, 0xbe,
  0x69, 0xb5, 0xb8, 0xbd, 0x35, 0xa2, 0x1b, 0xbd, 0x58, 0x6b, 0x68, 0x3e,
  0x1d, 0x4e, 0x4b, 0x3e, 0xd9, 0xad, 0x05, 0x3e, 0x35, 0xdf, 0xfd, 0xbc,
  0xcf, 0x4d, 0x8b, 0xbe, 0x71, 0x46, 0xaa, 0x3d, 0x6b, 0x10, 0xbe, 0xbd,
  0x79, 0xc2, 0x18, 0x3e, 0xa4, 0x80, 0xb5, 0x3d, 0x43, 0xac, 0x0b, 0x3e,
  0xba, 0x59, 0x41, 0xbd, 0xa1, 0x4b, 0x7c, 0xbe, 0x19, 0xb5, 0x08, 0xbe,
  0x45, 0x56, 0x88, 0xbd, 0xa8, 0xb7, 0xca, 0x3d, 0x5f, 0x8d, 0x9f, 0xbc,
  0xf6, 0x83, 0x3d, 0x3a, 0x54, 0x20, 0x6b, 0xbd, 0xe3, 0xba, 0x0a, 0x3e,
  0x37, 0x71, 0x6d, 0x3e, 0xeb, 0x32, 0x29, 0xbe, 0xe6, 0x0a, 0x4e, 0x3e,
  0x9f, 0xb8, 0x29, 0xbd, 0xd5, 0xd3, 0x1c, 0xbe, 0x36, 0x2a, 0xab, 0xbd,
  0x4d, 0x97, 0xe9, 0xbd, 0x43, 0x1f, 0xfc, 0xbd, 0x0b, 0x2a, 0x17, 0xbe,
  0x07, 0xbd, 0x00, 0xbe, 0x0b, 0xe1, 0xf2, 0xbd, 0x25, 0x7f, 0x40, 0x3d,
  0xcb, 0xdb, 0x12, 0x3d, 0xb3, 0xe0, 0x33, 0xbe, 0x28, 0x37, 0x48, 0x3d,
  0xa4, 0xa5, 0x60, 0xbd, 0x37, 0xb3, 0x19, 0xbe, 0xa6, 0x12, 0x59, 0x3d,
  0xfd, 0x50, 0xbe, 0x3d, 0x72, 0xd3, 0x0b, 0x3e, 0x72, 0x77, 0x3a, 0x3c,
  0x27, 0x4d, 0xf1, 0xbd, 0x35, 0xae, 0xea, 0xbd, 0xca, 0x5f, 0x34, 0x3d,
  0x62, 0xee, 0x46, 0xbd, 0x46, 0xcc, 0x65, 0xbd, 0x42, 0xd0, 0xe6, 0xbc,
  0x5e, 0x09, 0x09, 0xbd, 0x9f, 0xc8, 0x80, 0xbe, 0x07, 0xc1, 0x51, 0xbe,
  0x67, 0xdf, 0x51, 0xbe, 0xbd, 0x43, 0x78, 0x3d, 0x3b, 0x3c, 0x81, 0xbd,
  0xeb, 0xe8, 0x96, 0xbe, 0xfd, 0xe0, 0x94, 0x3d, 0x0f, 0xa4, 0x24, 0xbe,
  0x96, 0x88, 0x48, 0xbd, 0x2d, 0x9e, 0xc9, 0xbe, 0x4d, 0x30, 0x84, 0xbe,
  0x22, 0x0b, 0x32, 0x3b, 0x25, 0x11, 0xcd, 0x3b, 0xd4, 0x21, 0xa6, 0x3d,
  0xf6, 0xea, 0x6e, 0xbe, 0x45, 0x2e, 0x4d, 0xbe, 0x7d, 0x24, 0xf2, 0xbd,
  0xf2, 0x8b, 0x66, 0x3d, 0xfd, 0x43, 0x1a, 0xbe, 0x84, 0x9d, 0x9a, 0x3d,
  0x44, 0x77, 0xec, 0xbd, 0x9c, 0xbb, 0x3d, 0xbe, 0xca, 0xfd, 0x5b, 0xbe,
  0xf4, 0xa2, 0x95, 0x3d, 0x85, 0x85, 0x10, 0xbe, 0x9b, 0x1d, 0x52, 0xbe,
  0x49, 0xfe, 0x7c, 0x3c, 0xb0, 0xbf, 0x39, 0xbd, 0x56, 0xff, 0x5c, 0x3a,
  0x08, 0xcb, 0x87, 0xbe, 0x24, 0xea, 0x1d, 0xbd, 0xcb, 0x96, 0x61, 0xbe,
  0x29, 0xc0, 0x96, 0x3d, 0x69, 0xd9, 0x3b, 0xbd, 0x95, 0x8f, 0x45, 0xbd,
  0x7b, 0x7f, 0x11, 0xbb, 0xef, 0x68, 0x4b, 0x3d, 0x69, 0x63, 0xd8, 0xbe,
  0xfd, 0xac, 0x3d, 0x3e, 0xbb, 0x05, 0x94, 0xbe, 0xcb, 0x25, 0xa0, 0x3d,
  0x5e, 0x08, 0x86, 0xbe, 0xe8, 0x2b, 0x29, 0xbd, 0xb1, 0x59, 0xc8, 0x3b,
  0x0b, 0xdc, 0xf5, 0xbc, 0xec, 0xd7, 0x0a, 0xbe, 0xeb, 0xb0, 0x7e, 0xbe,
  0xc7, 0x12, 0x90, 0xbe, 0x2c, 0x55, 0xff, 0xbb, 0xe6, 0x29, 0x57, 0xbe,
  0x18, 0xef, 0x72, 0x3b, 0xfa, 0x82, 0x5d, 0x3d, 0x25, 0xb8, 0x38, 0x3d,
  0x60, 0xec, 0x5f, 0xbe, 0x20, 0x8a, 0x40, 0xbe, 0xd7, 0xbe, 0x46, 0xbe,
  0x8c, 0x71, 0x7d, 0xbd, 0xee, 0xa2, 0x22, 0xbe, 0x26, 0x93, 0x8c, 0xbe,
  0x61, 0x75, 0x85, 0xbd, 0x48, 0x86, 0xda, 0xbd, 0xec, 0x2a, 0x01, 0x3e,
  0xb9, 0x72, 0x69, 0xbe, 0x0e, 0xa5, 0xf7, 0xbc, 0x59, 0x64, 0x46, 0xbe,
  0x8f, 0x3e, 0x66, 0xbe, 0xf8, 0xd9, 0x64, 0xbe, 0x84, 0x3e, 0x45, 0xbe,
  0x37, 0x2a, 0xc2, 0xbe, 0x25, 0x08, 0xa5, 0xbe, 0xf6, 0xab, 0xd1, 0x3e,
  0x36, 0x23, 0x5e, 0x3f, 0xe7, 0x99, 0x2b, 0x3f, 0xc2, 0xc3, 0x7b, 0xbe,
  0xe2, 0xb7, 0x90, 0x3d, 0x7a, 0xc0, 0x67, 0xbe, 0xb5, 0xd4, 0xd7, 0xbe,
  0x18, 0xd9, 0x66, 0x3e, 0xa3, 0xb8, 0x05, 0xbe, 0x0f, 0xd5, 0x15, 0xbe,
  0xde, 0xcb, 0x0a, 0xbc, 0xc8, 0xf5, 0xd6, 0x3d, 0xba, 0x74, 0x89, 0xbd,
  0x16, 0x45, 0x2c, 0x3d, 0x13, 0xb4, 0xfc, 0xbc, 0xa4, 0x6f, 0xd4, 0xbe,
  0x02, 0xca, 0x40, 0xbd, 0x01, 0x91, 0xc8, 0x3c, 0x7e, 0x86, 0x88, 0x3f,
  0x4c, 0x05, 0x9d, 0xbe, 0x7b, 0xab, 0x80, 0xbd, 0x5c, 0x29, 0x02, 0x3d,
  0xd0, 0xf6, 0x82, 0xbe, 0xbb, 0x30, 0xd0, 0x3e, 0x38, 0xd3, 0xcd, 0x3c,
  0x20, 0x89, 0x1d, 0xbe, 0xbd, 0xa3, 0xf3, 0xbb, 0xb7, 0x79, 0x0c, 0xbd,
  0x55, 0x32, 0xb2, 0x3c, 0x1d, 0xb7, 0x26, 0xbe, 0x5a, 0xef, 0x05, 0xbd,
  0xf5, 0x00, 0x8c, 0xbe, 0x67, 0xf1, 0x21, 0x3e, 0x2c, 0xa0, 0xdf, 0xbd,
  0x58, 0x93, 0x48, 0x3f, 0x9c, 0xc9, 0x8f, 0xbe, 0x65, 0x85, 0xa1, 0x3a,
  0x5c, 0xd4, 0xc8, 0xbd, 0xd1, 0xba, 0x39, 0xbe, 0xf3, 0x49, 0xff, 0x3e,
  0x9a, 0x63, 0x29, 0xbe, 0x18, 0xbc, 0x00, 0x3e, 0x15, 0x1a, 0x85, 0xbe,
  0xc2, 0xd4, 0x2f, 0x3d, 0x1a, 0xb7, 0xb9, 0x3d, 0x9e, 0x8f, 0xc0, 0xbd,
  0xd5, 0x11, 0xe0, 0x3b, 0x55, 0xe0, 0xfa, 0xbd, 0x10, 0xe4, 0x98, 0xbd,
  0xe7, 0x83, 0x74, 0xbd, 0x2c, 0x71, 0x0a, 0x3f, 0x8f, 0x41, 0x8d, 0xbe,
  0xc4, 0xc5, 0x3f, 0x3d, 0x5e, 0xdc, 0x76, 0xbe, 0x2c, 0x2a, 0xe2, 0xbe,
  0x91, 0x69, 0xab, 0x3e, 0x10, 0x86, 0x75, 0xbe, 0xe1, 0xe7, 0x58, 0xbd,
  0x4a, 0x59, 0xc5, 0xbd, 0xe0, 0x97, 0x33, 0xbd, 0xbe, 0xa2, 0xaa, 0x3e,
  0x61, 0x95, 0xa3, 0x3d, 0x20, 0x9f, 0x2c, 0xbd, 0x26, 0x1b, 0xb3, 0xbd,
  0x9b, 0x29, 0x30, 0xbe, 0xc9, 0x0e, 0x58, 0x3d, 0x0b, 0x33, 0xa4, 0x3e,
  0x34, 0x4b, 0x65, 0xbe, 0x70, 0xca, 0x31, 0xbe, 0xbe, 0x46, 0x50, 0xbd,
  0xb4, 0x93, 0xcd, 0xbe, 0xa5, 0x1d, 0x51, 0x3f, 0xad, 0xc3, 0x59, 0xbe,
  0x0c, 0x74, 0x73, 0xbd, 0xba, 0x17, 0x9d, 0xbe, 0x12, 0x82, 0x41, 0xbe,
  0x96, 0xc2, 0xe9, 0x3d, 0x17, 0xca, 0x30, 0xbe, 0xd2, 0x26, 0x72, 0xbe,
  0x22, 0x1e, 0xaa, 0xbe, 0x08, 0x1c, 0xad, 0xbc, 0xd6, 0x51, 0x83, 0x3c,
  0xb0, 0x5b, 0x1d, 0x3f, 0x71, 0x89, 0xbe, 0xbe, 0x69, 0xcc, 0xa1, 0xbe,
  0x51, 0x76, 0xc2, 0x3c, 0x11, 0x6a, 0xc3, 0xbe, 0x65, 0x1a, 0x4e, 0x3f,
  0xdd, 0x66, 0xf0, 0xbe, 0x33, 0x12, 0x7a, 0xbd, 0xf0, 0xb1, 0xbb, 0xbe,
  0x3f, 0xb7, 0x9e, 0xbe, 0xab, 0x44, 0x14, 0x3d, 0xc1, 0x4c, 0x90, 0xbe,
  0x6f, 0xce, 0x4a, 0xbe, 0x36, 0xd7, 0xbb, 0xbe, 0x35, 0xa8, 0xea, 0x3c,
  0x02, 0x01, 0xbd, 0x3c, 0x92, 0x40, 0x86, 0x3e, 0xc4, 0x8b, 0x1d, 0xbb,
  0x53, 0x38, 0x38, 0xbf, 0xe3, 0x33, 0x82, 0x3e, 0x0c, 0xd6, 0x89, 0x3d,
  0xcc, 0x66, 0x5f, 0xbe, 0x42, 0xcd, 0x19, 0xbe, 0xd0, 0x36, 0x35, 0xbf,
  0x30, 0x4c, 0x09, 0xbe, 0x9e, 0xa6, 0x0a, 0xbf, 0x4b, 0x2b, 0x93, 0x3e,
  0xf5, 0x49, 0x4b, 0x3e, 0x15, 0xfb, 0x35, 0xbe, 0xa8, 0x2b, 0xbb, 0xbe,
  0x97, 0xfd, 0x7c, 0x3e, 0x52, 0xd9, 0x61, 0xbe, 0x30, 0xa9, 0x30, 0xbe,
  0x41, 0x92, 0x25, 0x3c, 0x05, 0x98, 0x89, 0xbe, 0x3e, 0xac, 0xee, 0x3d,
  0x2e, 0x1c, 0x73, 0x3d, 0x17, 0x5b, 0x90, 0x3d, 0x26, 0xb9, 0xc6, 0x3d,
  0x87, 0x34, 0x0a, 0x3d, 0xdf, 0x94, 0x86, 0x3e, 0xdf, 0x6a, 0xc4, 0xbd,
  0x05, 0xa6, 0x4a, 0x3e, 0xa8, 0x7a, 0x87, 0x3e, 0x33, 0x0c, 0x25, 0x3d,
  0x4f, 0x54, 0xd0, 0xbe, 0xdd, 0xb5, 0xf2, 0x3e, 0xe8, 0x82, 0x99, 0xbe,
  0x49, 0x28, 0x89, 0x3e, 0x97, 0xea, 0x43, 0x3d, 0x31, 0x20, 0x9f, 0xbe,
  0xb0, 0x1f, 0xb1, 0x3e, 0xee, 0xde, 0x78, 0x3d, 0x8c, 0x0a, 0x5b, 0x3e,
  0x0f, 0x1e, 0x72, 0x3e, 0xf7, 0xa6, 0x20, 0x3e, 0xee, 0xa2, 0x25, 0x3f,
  0x48, 0x5f, 0x13, 0x3e, 0xc0, 0xbf, 0x11, 0x3d, 0x07, 0x56, 0xf6, 0x3d,
  0xf9, 0xe9, 0x78, 0x3c, 0xa5, 0x8d, 0x76, 0xbe, 0x73, 0xbd, 0xcc, 0x3d,
  0x24, 0x4b, 0xe2, 0xbe, 0x2e, 0xf1, 0xb5, 0xbd, 0xf8, 0xf4, 0x91, 0x3d,
  0xcc, 0x73, 0x42, 0xbc, 0x0c, 0xf8, 0x41, 0x3e, 0x01, 0xb0, 0x6f, 0x3d,
  0xe9, 0xd3, 0x6d, 0x3e, 0x25, 0x40, 0x6d, 0x3d, 0xc3, 0x08, 0xde, 0x3e,
  0xcd, 0x5d, 0x08, 0x3f, 0xc5, 0xe5, 0xf0, 0xbd, 0x5e, 0x7e, 0x89, 0x3e,
  0x48, 0xe9, 0x96, 0xbe, 0xf3, 0xa8, 0x31, 0xbb, 0x82, 0x72, 0x68, 0xbe,
  0x3a, 0x7a, 0xac, 0xbd, 0x5e, 0xcc, 0xab, 0xbd, 0xeb, 0x8c, 0x53, 0xbe,
  0xfa, 0x48, 0xd3, 0x3b, 0x2a, 0xb3, 0xe9, 0xbd, 0x5c, 0xa2, 0xcc, 0x3e,
  0x86, 0x7b, 0x41, 0x3d, 0xd2, 0x27, 0x6c, 0xbd, 0x81, 0x5d, 0x8a, 0x3d,
  0xf7, 0xf0, 0x64, 0xbe, 0x8c, 0xfe, 0xa5, 0x3e, 0x52, 0xdd, 0x47, 0x3c,
  0x86, 0xdd, 0x3e, 0x3e, 0x0e, 0xfc, 0x45, 0xbe, 0x08, 0x29, 0x00, 0x3d,
  0xb8, 0xac, 0x6f, 0xbe, 0x58, 0xcd, 0x10, 0xbe, 0x48, 0x26, 0x88, 0xbe,
  0xbf, 0xdd, 0x19, 0xbf, 0x80, 0x1f, 0x85, 0x3d, 0x9d, 0xae, 0xb6, 0xbe,
  0x61, 0x10, 0x33, 0x3e, 0xc4, 0xe6, 0xcf, 0xbc, 0xd9, 0xb5, 0xb1, 0x3e,
  0x68, 0xe1, 0x58, 0xbd, 0x9f, 0xf8, 0x22, 0xbe, 0x54, 0xd3, 0xd9, 0x3d,
  0x5d, 0x5a, 0x36, 0xbe, 0xf2, 0xae, 0x81, 0x3d, 0x7a, 0xbd, 0x4d, 0xbe,
  0x4b, 0xc9, 0x4a, 0xbe, 0xaf, 0x45, 0x18, 0xbe, 0xb2, 0x16, 0x9e, 0xbe,
  0x89, 0x06, 0x8b, 0xbe, 0x91, 0xa4, 0x40, 0xbf, 0x03, 0xc8, 0xbc, 0x3d,
  0x94, 0x54, 0x5b, 0xbc, 0x6e, 0x03, 0x95, 0x3e, 0x88, 0x60, 0xea, 0x3c,
  0xce, 0x27, 0xd8, 0x3e, 0x87, 0xd0, 0x8b, 0x3c, 0x69, 0xd2, 0xf1, 0xbd,
  0xa1, 0xd4, 0x7c, 0xbd, 0xbf, 0x0d, 0x0b, 0xbd, 0xf1, 0xd8, 0x55, 0xbc,
  0x3b, 0x33, 0x94, 0xbe, 0xbb, 0x5a, 0x01, 0x3d, 0xda, 0x99, 0xf9, 0xbd,
  0x6d, 0x57, 0x8a, 0xbe, 0x05, 0xaf, 0x26, 0xbe, 0xbe, 0x24, 0x01, 0xbf,
  0x66, 0xfd, 0xff, 0xff, 0x10, 0x00, 0x00, 0x00, 0x07, 0x00, 0x00, 0x00,
  0x14, 0x00, 0x00, 0x00, 0x2c, 0x00, 0x00, 0x00, 0x02, 0x00, 0x00, 0x00,
  0x10, 0x00, 0x00, 0x00, 0x70, 0x00, 0x00, 0x00, 0x17, 0x00, 0x00, 0x00,
  0x73, 0x65, 0x71, 0x75, 0x65, 0x6e, 0x74, 0x69, 0x61, 0x6c, 0x2f, 0x64,
  0x65, 0x6e, 0x73, 0x65, 0x2f, 0x4d, 0x61, 0x74, 0x4d, 0x75, 0x6c, 0x00,
  0xd0, 0xfc, 0xff, 0xff, 0xda, 0xfd, 0xff, 0xff, 0x04, 0x00, 0x00, 0x00,
  0x08, 0x00, 0x00, 0x00, 0xff, 0xff, 0xff, 0xff, 0x70, 0x00, 0x00, 0x00,
  0x00, 0x00, 0x0e, 0x00, 0x18, 0x00, 0x08, 0x00, 0x07, 0x00, 0x0c, 0x00,
  0x10, 0x00, 0x14, 0x00, 0x0e, 0x00, 0x00, 0x00, 0x00, 0x00, 0x00, 0x02,
  0x10, 0x00, 0x00, 0x00, 0x06, 0x00, 0x00, 0x00, 0x10, 0x00, 0x00, 0x00,
  0x2c, 0x00, 0x00, 0x00, 0x01, 0x00, 0x00, 0x00, 0x02, 0x00, 0x00, 0x00,
  0x18, 0x00, 0x00, 0x00, 0x73, 0x65, 0x71, 0x75, 0x65, 0x6e, 0x74, 0x69,
  0x61, 0x6c, 0x2f, 0x66, 0x6c, 0x61, 0x74, 0x74, 0x65, 0x6e, 0x2f, 0x43,
  0x6f, 0x6e, 0x73, 0x74, 0x00, 0x00, 0x00, 0x00, 0x38, 0xfd, 0xff, 0xff,
  0x42, 0xfe, 0xff, 0xff, 0x04, 0x00, 0x00, 0x00, 0x0c, 0x00, 0x00, 0x00,
  0xfe, 0x76, 0xc7, 0xbf, 0x96, 0xab, 0x87, 0xbf, 0x6d, 0x6e, 0xe7, 0x3f,
  0x26, 0xfe, 0xff, 0xff, 0x10, 0x00, 0x00, 0x00, 0x05, 0x00, 0x00, 0x00,
  0x10, 0x00, 0x00, 0x00, 0x44, 0x00, 0x00, 0x00, 0x01, 0x00, 0x00, 0x00,
  0x03, 0x00, 0x00, 0x00, 0x32, 0x00, 0x00, 0x00, 0x73, 0x65, 0x71, 0x75,
  0x65, 0x6e, 0x74, 0x69, 0x61, 0x6c, 0x2f, 0x64, 0x65, 0x6e, 0x73, 0x65,
  0x5f, 0x31, 0x2f, 0x42, 0x69, 0x61, 0x73, 0x41, 0x64, 0x64, 0x2f, 0x52,
  0x65, 0x61, 0x64, 0x56, 0x61, 0x72, 0x69, 0x61, 0x62, 0x6c, 0x65, 0x4f,
  0x70, 0x2f, 0x72, 0x65, 0x73, 0x6f, 0x75, 0x72, 0x63, 0x65, 0x00, 0x00,
  0xa8, 0xfd, 0xff, 0xff, 0xb2, 0xfe, 0xff, 0xff, 0x04, 0x00, 0x00, 0x00,
  0x40, 0x00, 0x00, 0x00, 0xa8, 0xc0, 0x9f, 0xbe, 0xdc, 0x26, 0x3a, 0x3f,
  0xdb, 0x45, 0x1f, 0xc0, 0xe6, 0x85, 0x0f, 0x3e, 0xd7, 0x77, 0x53, 0x3f,
  0x02, 0x10, 0x27, 0x40, 0x1b, 0x25, 0xaa, 0xbf, 0x38, 0x1a, 0xe9, 0xbe,
  0x0b, 0x7a, 0x3f, 0xbe, 0x7e, 0x37, 0xf4, 0x3e, 0x62, 0xcd, 0x13, 0x3f,
  0x52, 0x8a, 0x7f, 0xbf, 0x30, 0x5c, 0x4d, 0x3d, 0x34, 0xbe, 0xe7, 0xbe,
  0x62, 0x57, 0xb3, 0x3f, 0x25, 0x27, 0x5f, 0x40, 0xca, 0xfe, 0xff, 0xff,
  0x10, 0x00, 0x00, 0x00, 0x04, 0x00, 0x00, 0x00, 0x10, 0x00, 0x00, 0x00,
  0x44, 0x00, 0x00, 0x00, 0x01, 0x00, 0x00, 0x00, 0x10, 0x00, 0x00, 0x00,
  0x30, 0x00, 0x00, 0x00, 0x73, 0x65, 0x71, 0x75, 0x65, 0x6e, 0x74, 0x69,
  0x61, 0x6c, 0x2f, 0x64, 0x65, 0x6e, 0x73, 0x65, 0x2f, 0x42, 0x69, 0x61,
  0x73, 0x41, 0x64, 0x64, 0x2f, 0x52, 0x65, 0x61, 0x64, 0x56, 0x61, 0x72,
  0x69, 0x61, 0x62, 0x6c, 0x65, 0x4f, 0x70, 0x2f, 0x72, 0x65, 0x73, 0x6f,
  0x75, 0x72, 0x63, 0x65, 0x00, 0x00, 0x00, 0x00, 0x4c, 0xfe, 0xff, 0xff,
  0x56, 0xff, 0xff, 0xff, 0x04, 0x00, 0x00, 0x00, 0x40, 0x00, 0x00, 0x00,
  0xa2, 0x51, 0x4e, 0xbc, 0x14, 0x59, 0xae, 0xbf, 0x2d, 0x5b, 0xa3, 0xbb,
  0x2a, 0x51, 0x7b, 0xbf, 0xff, 0xa5, 0x1d, 0x40, 0x79, 0xc8, 0xe2, 0xbd,
  0xd8, 0x74, 0xe6, 0xbf, 0x03, 0x07, 0x21, 0xbf, 0xf1, 0x62, 0xd3, 0xbf,
  0x6e, 0xf0, 0x84, 0x3e, 0x81, 0x8d, 0xdd, 0xbe, 0xb9, 0x13, 0xda, 0xbf,
  0x1d, 0x65, 0xe5, 0xbe, 0x15, 0x32, 0x8d, 0x3d, 0x63, 0x93, 0x13, 0x3f,
  0x81, 0x82, 0x4b, 0x40, 0x6e, 0xff, 0xff, 0xff, 0x10, 0x00, 0x00, 0x00,
  0x03, 0x00, 0x00, 0x00, 0x10, 0x00, 0x00, 0x00, 0x48, 0x00, 0x00, 0x00,
  0x01, 0x00, 0x00, 0x00, 0x10, 0x00, 0x00, 0x00, 0x33, 0x00, 0x00, 0x00,
  0x73, 0x65, 0x71, 0x75, 0x65, 0x6e, 0x74, 0x69, 0x61, 0x6c, 0x2f, 0x63,
  0x6f, 0x6e, 0x76, 0x32, 0x64, 0x5f, 0x31, 0x2f, 0x42, 0x69, 0x61, 0x73,
  0x41, 0x64, 0x64, 0x2f, 0x52, 0x65, 0x61, 0x64, 0x56, 0x61, 0x72, 0x69,
  0x61, 0x62, 0x6c, 0x65, 0x4f, 0x70, 0x2f, 0x72, 0x65, 0x73, 0x6f, 0x75,
  0x72, 0x63, 0x65, 0x00, 0x04, 0x00, 0x06, 0x00, 0x04, 0x00, 0x00, 0x00,
  0x00, 0x00, 0x06, 0x00, 0x08, 0x00, 0x04, 0x00, 0x06, 0x00, 0x00, 0x00,
  0x04, 0x00, 0x00, 0x00, 0x20, 0x00, 0x00, 0x00, 0x96, 0xa2, 0x4a, 0xbd,
  0xb9, 0x57, 0xed, 0xbe, 0x60, 0x6b, 0x03, 0xc0, 0x5a, 0x1b, 0xd0, 0xbf,
  0x5f, 0xc7, 0xd3, 0xbd, 0xc1, 0xe1, 0x38, 0xc0, 0x18, 0xa2, 0x08, 0xc0,
  0xed, 0x60, 0x1f, 0xc0, 0x00, 0x00, 0x0e, 0x00, 0x14, 0x00, 0x04, 0x00,
  0x00, 0x00, 0x08, 0x00, 0x0c, 0x00, 0x10, 0x00, 0x0e, 0x00, 0x00, 0x00,
  0x10, 0x00, 0x00, 0x00, 0x02, 0x00, 0x00, 0x00, 0x10, 0x00, 0x00, 0x00,
  0x44, 0x00, 0x00, 0x00, 0x01, 0x00, 0x00, 0x00, 0x08, 0x00, 0x00, 0x00,
  0x31, 0x00, 0x00, 0x00, 0x73, 0x65, 0x71, 0x75, 0x65, 0x6e, 0x74, 0x69,
  0x61, 0x6c, 0x2f, 0x63, 0x6f, 0x6e, 0x76, 0x32, 0x64, 0x2f, 0x42, 0x69,
  0x61, 0x73, 0x41, 0x64, 0x64, 0x2f, 0x52, 0x65, 0x61, 0x64, 0x56, 0x61,
  0x72, 0x69, 0x61, 0x62, 0x6c, 0x65, 0x4f, 0x70, 0x2f, 0x72, 0x65, 0x73,
  0x6f, 0x75, 0x72, 0x63, 0x65, 0x00, 0x00, 0x00, 0x90, 0xff, 0xff, 0xff,
  0x14, 0x00, 0x18, 0x00, 0x04, 0x00, 0x00, 0x00, 0x08, 0x00, 0x0c, 0x00,
  0x10, 0x00, 0x00, 0x00, 0x00, 0x00, 0x14, 0x00, 0x14, 0x00, 0x00, 0x00,
  0x14, 0x00, 0x00, 0x00, 0x01, 0x00, 0x00, 0x00, 0x20, 0x00, 0x00, 0x00,
  0x44, 0x00, 0x00, 0x00, 0x2c, 0x00, 0x00, 0x00, 0x04, 0x00, 0x00, 0x00,
  0x01, 0x00, 0x00, 0x00, 0x40, 0x00, 0x00, 0x00, 0x03, 0x00, 0x00, 0x00,
  0x01, 0x00, 0x00, 0x00, 0x0c, 0x00, 0x00, 0x00, 0x63, 0x6f, 0x6e, 0x76,
  0x32, 0x64, 0x5f, 0x69, 0x6e, 0x70, 0x75, 0x74, 0x00, 0x00, 0x00, 0x00,
  0x04, 0x00, 0x00, 0x00, 0xff, 0xff, 0xff, 0xff, 0x40, 0x00, 0x00, 0x00,
  0x03, 0x00, 0x00, 0x00, 0x01, 0x00, 0x00, 0x00, 0xfc, 0xff, 0xff, 0xff,
  0x04, 0x00, 0x04, 0x00, 0x04, 0x00, 0x00, 0x00
};

unsigned int model_tflite_len = 13052;// Fill the int in `src/model.cc` here